/**
  ******************************************************************************
  * @file    network_data_params.c
  * @author  AST Embedded Analytics Research Platform
  * @date    Sat Aug 13 18:26:39 2022
  * @brief   AI Tool Automatic Code Generator for Embedded NN computing
  ******************************************************************************
  * Copyright (c) 2022 STMicroelectronics.
  * All rights reserved.
  *
  * This software is licensed under terms that can be found in the LICENSE file
  * in the root directory of this software component.
  * If no LICENSE file comes with this software, it is provided AS-IS.
  ******************************************************************************
  */

#include "network_data_params.h"


/**  Activations Section  ****************************************************/
ai_handle g_network_activations_table[1 + 2] = {
  AI_HANDLE_PTR(AI_MAGIC_MARKER),
  AI_HANDLE_PTR(NULL),
  AI_HANDLE_PTR(AI_MAGIC_MARKER),
};




/**  Weights Section  ********************************************************/
AI_ALIGNED(32)
const ai_u64 s_network_weights_array_u64[112353] = {
  0xbd8367e73ba96cfeU, 0xbd12d9483da4d678U, 0xbe5052a6bea34a46U, 0x3ea728163e3701a8U,
  0xbe5dc9da3db41d02U, 0x3d7624cfbd271512U, 0x3da5b9103ad52c39U, 0xbd8b60f2bdad93f4U,
  0xbe6df0b2be36e6b9U, 0x3ca863ea3ea4e504U, 0x3dae39c23cac8a64U, 0xbe8ccdfcbe598dd4U,
  0xbe8d9a9abe28ea48U, 0x3e802cb13e0fd171U, 0xbe965a5cbd3c0d7cU, 0x3e40ed03be37ec60U,
  0xbd84c12a3de279b0U, 0x3e2f9784be1ac970U, 0x3cb7fb103decfa4fU, 0xbe89af5ebd81ee0eU,
  0x3c23db52bdff82d4U, 0x3e7ac48bbdbac14dU, 0x3e01ab6ebe80cfd5U, 0x3e55306cbedd417fU,
  0xbdef35aa3e5f0ed1U, 0x3e0d690a3c13b8c7U, 0xbddc3d85bdc5dda9U, 0xbd72afb43ea50c09U,
  0xbd927c9e3e0f874dU, 0xbe92cc08beb03740U, 0xbd843baabe859a58U, 0xbd3615373d98c809U,
  0x3ccab74ebe0606b7U, 0xbdf25983be744aebU, 0xbe5cdea13dd5e2ceU, 0xbe0fa768be57b31aU,
  0xbe8c9bd8bdfad167U, 0xbe3c4e153e82b2c0U, 0x3ea80814be5e55fbU, 0x3de51d9fbe112194U,
  0xbe80ce7b3e549280U, 0x3d1c61e1be60d6b2U, 0x3d86bb4cbd44d773U, 0x3e62589e3de70fb3U,
  0x3e13e9273e1b92f4U, 0xbd4e0009be81d9f0U, 0xbdbeb7e93b7ac478U, 0x3e3d3d303e2a2a8cU,
  0x3de17743bdde174eU, 0xbd479ec8be9edb1eU, 0xbb8ee4fa3e69b1e0U, 0x3cafc5b13eb17768U,
  0xbd7382a8be620349U, 0x3dbb1418bebc1f23U, 0xbdc3617dbe10f5a1U, 0x3dcd78ed3b2cebf8U,
  0xbd917ee1bda300a2U, 0xbdcc4346bd1ac1b8U, 0xbba16edfbdca156dU, 0x3dca20c93e9bbaceU,
  0xbd415a7fbe96f82fU, 0xbe5c9b703e47b54dU, 0x3e0c0abebe66710cU, 0xbe85f03bbd46f3f6U,
  0x3e5c87f6bcff7333U, 0xbe39fb10be35b223U, 0x3e5529e7bcabdf6aU, 0x3de38b953ceb1b69U,
  0x3df811173e7a2964U, 0x3def28eb3df98b11U, 0xbe84ac2c3d8bf436U, 0xbde0c394be63348eU,
  0xbd515d9bba8ee479U, 0xbc0f1ed23d3d8ecaU, 0xbc54b156bd63abcbU, 0x3e0ed8c63beec5c8U,
  0xbd9fe77e3c83fedbU, 0xbd0cd0bd3c8ec9feU, 0x3c2fd4b3bd71deb3U, 0xbdcf23353d7545dcU,
  0xbdc4cd60bd206be9U, 0xbee0ae84bdd6557aU, 0x3c7cab1f3de93957U, 0x3d1da4f5be0bc091U,
  0xbe83fc9abea9c565U, 0xbd483e23be163b67U, 0x3e0ec2bd3ce3525eU, 0x3e5c0e6bbdc1260cU,
  0x3a9ca4d53b779d87U, 0xbe4966c13de12324U, 0xbe4754abbd9ff764U, 0x3e33e80b3dd3d4b2U,
  0xbe8ca4a6bf024160U, 0x3da3ba69bda66e96U, 0x3dd0e1c83dd915d5U, 0x3e809ccf3c2b07e2U,
  0xbe372f73be0f794aU, 0xbe731e8d3d8871a2U, 0xbeca0381be3300f1U, 0xbcb9e8d43d864ba6U,
  0xbe6f8635bece8093U, 0x3e7da526be2b1a0aU, 0xbbca6bbfbc95b648U, 0x3d910c38be7054b7U,
  0xbde763aabdafce44U, 0xbc8bf489bdbfc4a5U, 0xbe1e6ec9bd70cd67U, 0xbd45fb7b3b7e6d4eU,
  0x3db928e2bdb8a90dU, 0xbe591d0f3d7bf5c7U, 0xbdcc8460bd851266U, 0xbe3cff2e3d786058U,
  0x3aa7f71cbdf97c97U, 0xbdf7ec80bd9b2356U, 0xbd20bee63d84d13eU, 0x3d3e57bc3e00fd78U,
  0xbddde12ebe0c319fU, 0xbe95a0293e119193U, 0xbe3cd6a73d810dfcU, 0xbe651e003d663bd6U,
  0xbdabe79cbe0b001aU, 0xbe097918bdc27a49U, 0xbc5b08543c021ba0U, 0x3d922f1f3ddd2041U,
  0x3b5898fbbe22310cU, 0xbe32cc433e19f6c1U, 0xbe1c6845bd6f47bbU, 0xbde451cd3c30bc5cU,
  0x3d32948c3cd4a718U, 0xbe3d32c5be2f1955U, 0xbde6d3f3bbeefc8eU, 0x3dffc666bdfe4da7U,
  0x3c70056c3d5666c5U, 0xbbf9fa87bca70cc1U, 0xbd23f6673cb6ebcbU, 0xbe9e85fc3d03b0e2U,
  0xbda929423d9a4a7bU, 0xbe2dbd89bdad72bdU, 0x3d7e62a73e789bdeU, 0x3b92ecc93d71880aU,
  0xbdae6fd43de2c034U, 0xbdd208da3e59490dU, 0xbe2c1126bd947969U, 0xbe91c0223e36268fU,
  0xbc743e2f3dbda6abU, 0xbe96ca78be6ff781U, 0xbe84bedcbd1dca11U, 0xbcd7f63abd4718dcU,
  0xbc2b707d3cf7c3ceU, 0xbe37b62cbe3bd632U, 0xbe734c02bddd486aU, 0xbea25b3b3e031370U,
  0x3dd85f4abe27f49bU, 0xbe717fd0be4673c6U, 0x3c41addfbdc74df5U, 0xbd4580bdbd948b32U,
  0xbd1a1c55bddc5d1cU, 0xbe4e2dfdbe4d88beU, 0xbd7af3ebbd8d18ceU, 0xbce7fe77be34c409U,
  0x3dc0a6fcbc1100cdU, 0xbc626037bd4a1323U, 0x3da99b71bd7e410bU, 0xbd165079bda83539U,
  0x3d586ababe18d03fU, 0xbd01f7563e0489d2U, 0xbd7b42a2bd42b36dU, 0x3d8374d4bdd840c2U,
  0xbd94fe2fbd9101d8U, 0xbc56c97d3d55c742U, 0xbdfe16b4bdcdc24aU, 0x3d3f7ebd3d8de792U,
  0xbd8747dfbd90a39fU, 0xbd2216eabe7a5ffaU, 0x3b405564be18276cU, 0x3d7917463dabf98fU,
  0x3d8bd228bd6d68d5U, 0xbe7e9cb63e6e6f45U, 0xbd1776163cddf754U, 0xbd77d6c43d9f330fU,
  0xbdd4496cbeb6652aU, 0x3d104868bdfa6d4aU, 0xbd30491abd3a5202U, 0x3ddd7484be6770dfU,
  0x3d53494a3d9fdfbbU, 0xbd52cd39bc76ac50U, 0xbccfbc0f3cabadc1U, 0xbe0020583eae2c19U,
  0xbcfe00003de379eaU, 0x3dd26a213e445067U, 0x3e2ede323d227919U, 0xbda769e33e060f21U,
  0xbdccaf993df5d5c4U, 0x3c667d233e27578bU, 0x3de0a02bbddaf8c9U, 0x3d7170b43e54f3abU,
  0xbc21a032be6436a1U, 0x3e1a3147be10cebfU, 0x3df1a181bde5c3f9U, 0x3e013ac03d557575U,
  0x3d8a6fc63c41f08aU, 0x3dd989323e14703bU, 0x3d1e462b3d263011U, 0x3e9fe8813e5e9d53U,
  0xbe744bdbbcc03b10U, 0x3e5660a33cd8ab88U, 0xbc38bb343c3f7b40U, 0xbd9210b73dc3626aU,
  0xbd76ae55be8c3708U, 0x3da7dd113d938ea1U, 0xbd4266183d9f615fU, 0x3e622d663e0027deU,
  0xbdd3e55a3e052a99U, 0xbdf6f92c3e90bc31U, 0x3e3645ba3ced6ddeU, 0x3d680788bde792ffU,
  0x3bd67e183c2383e3U, 0x3e10d7a5bd20caa6U, 0x3cababc53cdb4b0cU, 0x3dfd6c253ccaea86U,
  0xbd963304be535ee1U, 0xbd8e35b33d2d1b09U, 0x3c1b91cf3d7c3604U, 0xbcd6c0fb3dda82c0U,
  0x3d93d68d3e28d5d0U, 0x3dbcf6adbe7a77cfU, 0x3ea86547bd964adeU, 0x3e125cb1bc43595eU,
  0xbdaebce03d8518a5U, 0xbee3ae623d8a79f3U, 0xbd6963923dc9f7ebU, 0xbe5ed4053ec5c08bU,
  0x3d1f6a58bd1bb5feU, 0xbe10cdf23e15d494U, 0x3d40469c3d7a4227U, 0x3e5d30053c039d4cU,
  0xbe83b79e3dfe37e5U, 0xbe9e4ef43e733011U, 0x3e8bfce6bd0f8695U, 0x3d7bee48be6bba98U,
  0x3c8cf466be930e2eU, 0xbe80963f3e93bc91U, 0xbe557abdbd4b2d27U, 0xbd30aa70bea9a563U,
  0xbe00022bbd494066U, 0x3da65d7e3c893207U, 0xbd43e2cfbd527da5U, 0x3e21b8a4bea982ecU,
  0xbd3c57abbe732fb5U, 0x3d9ba4be3d322e42U, 0x3e0c718dbdce281eU, 0xbdeafd26bd61c6daU,
  0xbe0d8814bd5b1fe8U, 0xbdbda158be3085a1U, 0xbaf67b6c3ccd565bU, 0xbe18a8f03e83a5daU,
  0xbe5876593d64d7c8U, 0x3d84efd3be1f9556U, 0x3e1ecb413d64272eU, 0xbd93de72bb2b4ef3U,
  0x3cd24cdcbe5e1779U, 0xbe7c593bbd82443dU, 0x3e05eb34bbd6a5a9U, 0xbe41a1493e8472d3U,
  0x3c9fa6743dc010deU, 0x3ce4cfdf3e60965bU, 0x3e613dddbdbc79fcU, 0x3e4dd502bd0afb3cU,
  0xbcf4ba46be012c3bU, 0xbdf4bd953df0066eU, 0x3e81f8013cdaedecU, 0xbd3a9e983e43d6e3U,
  0x3d85a865be3956d4U, 0xbe6ecac6bdbff42bU, 0xbd972b6ebdf88a5aU, 0xbe13eb65be9bbfe9U,
  0xbe19beb0bde4c653U, 0x3e644322bd6cfb93U, 0xbd9b3583bda78ab7U, 0x3d9a9ed5bec4f147U,
  0x3dbb7467bd2528bfU, 0x3ceb6ed5bd90cf68U, 0x3d8f2d523c703eb8U, 0xbe06df1fbdebc263U,
  0xbc03a8febedee37cU, 0xbd191e06be9001c3U, 0xbcee5258bcab6a5dU, 0xbd0faa413d08f012U,
  0xbcf0d5873e1fee03U, 0x3dd87879be8eebbbU, 0x3d0e15c3bd901afbU, 0xbde9f732be96717cU,
  0x3d78e18dbe28add6U, 0xbe2ce663be0d8aeeU, 0xbd297dc43d1266b9U, 0x3ca247bf3dfc91f3U,
  0x3d8029d53ac5bc28U, 0xbe2765fc3dd780ccU, 0xbe44d6f1bd6d0033U, 0xbefbe86e3eac1fa6U,
  0x3e4d0abd3d64e017U, 0x3d22764e3d2ace77U, 0xbe85ae2d3c91ccebU, 0x3dcacb88be32916aU,
  0xbd04d8673d64ee62U, 0xbd7a76d7bcb1725bU, 0x3d9c3e1dbda82615U, 0xbf0ca93e3e53c520U,
  0x3e3944e8beef2508U, 0x3d1352bcbda7c0d0U, 0xbd342c503de5984dU, 0x3e3a50033d21d9fdU,
  0xbded363c3e061fc0U, 0xb8c8c7cabe3085c0U, 0x3d944c20bd036848U, 0xbe33dbb83e14eb59U,
  0xbda7ec5cbe85a152U, 0xbebc023dbe1e5f19U, 0x3deb7144bd95e9f2U, 0x3e3fe4adbdbfa092U,
  0xbdb12484be87ebceU, 0xbe5b4a60bccc0bbaU, 0xbe34ce5a3dfd626dU, 0xbe81aa22be1a80a3U,
  0xbd764fe9be890aa1U, 0x3e9c0bf6bca797d0U, 0xbe71657e3bb05ea8U, 0x3cfddaa9beb1a8ceU,
  0xbd90d970be8d2a86U, 0x3c7f0001bd72eb56U, 0xbdbe4e8f3e0fe5dbU, 0xbe208dc4be0c18c8U,
  0xbe899bbbbe43cdefU, 0xbd9323b6bc39cbf4U, 0x3d951980be05321eU, 0x3dccbfbabb976534U,
  0x3dad4531bd550e39U, 0x3e412dd6bd78f286U, 0xbd50a590bd5e9a40U, 0xbbc2848abda41e35U,
  0xbe566eccbe3ffb4bU, 0xbe4de35dbe4a7b55U, 0x3e801db3be185cf3U, 0xbd19f9b43e2b7194U,
  0xbdb9328e3e4ceb9eU, 0xbdc8fc3dbdded09bU, 0x3e2ed4663dda8e89U, 0x3dbd9f73bdb428ebU,
  0xbe2d913ebdf1de9aU, 0xbd1e4bb7bd8ea64cU, 0x3de6ce23bd6ff114U, 0xbd97602b3d5d6e64U,
  0x3d2934923d89a1d0U, 0xbe34a4133d9a7f9fU, 0xbe272786be377106U, 0x3e3db710be54440cU,
  0xbe2f87f63e016383U, 0xbe1c55453e15ae47U, 0x3e3bae6c3d37f3b5U, 0xbe1ac9283e8bcefbU,
  0x3cb93b02bd4cba8fU, 0x3e16b4c7bdbaa0a9U, 0x3c5c8276be0662c2U, 0x3e117460be76a44bU,
  0xbde0b0633e70d1a1U, 0x3e25b5073e3f8de7U, 0x3e225d743d945f5cU, 0x3c3656483c044196U,
  0xbdc1a6e1bd377606U, 0x3dfe41273da55680U, 0x3df7610c3dc9de68U, 0xbd04cf9d3de8bebeU,
  0xbdfaca2cbe0fbea7U, 0x3c8320abbcafb3cdU, 0xbd8872bb3df7ade7U, 0xbdffcb01bd565ce2U,
  0xbbdeeeff3be3cc51U, 0x3cd9d5773d2aa46dU, 0x3c38a859bc93a7acU, 0xbcdfffcdbde88da4U,
  0x3d3adc7fbdc1e075U, 0xbdedf29abd519a1fU, 0xbca911e03d95fce0U, 0xbe29b5ebbcc5b9cdU,
  0xbcf169393c8bd317U, 0xbde5a0e6bcda7e5bU, 0x3d834e753dd9600dU, 0x3bfe43633dfab0bbU,
  0xbe033896bd585895U, 0x3d927c023e031eb7U, 0xbdc6b161b9e0920bU, 0xbe386a97bd123898U,
  0x3d447e47bd4614c5U, 0x3ce6968c3dc2557fU, 0xbdcd444a3ca96768U, 0xbe2006f2bd0c63d5U,
  0xbc84e303bdbf723aU, 0xbdc805583d6d104bU, 0x3d2538923ddc0df3U, 0x3d5b40b6bd670045U,
  0xbda700c43dba75feU, 0x3db17ba3be2275aeU, 0x3cd7841ebde8cc2cU, 0xbd377c8e3dd46865U,
  0xbdc3c9aabdb96238U, 0x3c5f51febd950556U, 0xbe184a5f3d8df041U, 0xbbfb1140bd84b712U,
  0xbd7591fcbe03702fU, 0xbe3c070fbd10d380U, 0x3d27ec6dbdb5b811U, 0xbe27960e3d93520cU,
  0x3d648fb4b89cd5e9U, 0x3a7a117d3d62a4c1U, 0xbe05e423bdacbe10U, 0x3d89df9e3dda6ad8U,
  0xbced5a4ebd7a635dU, 0x3d1443d2bd9a52caU, 0xbde3d78f3dd2b115U, 0xbe10bbff3deae57cU,
  0x3c9293463cc1ed0eU, 0xbdd93bdabd10bdbaU, 0xbe1c533ebd9d4904U, 0xbe4b6d8d3d1aa752U,
  0x3ba102833d8d6f00U, 0xbdd2af21bc9d894cU, 0xbc4c28293ce1d7f6U, 0xbcc45dab3d21864dU,
  0xbd4955e43d9d2ea1U, 0x3df5da823e07c101U, 0xbd0cb5bfbd0959c7U, 0x3d57359cbd5066ccU,
  0x3d96a66fbddcf474U, 0x3dd672d3bde0101dU, 0xbd8e1dbd3d960621U, 0xbb8a997bbd83141eU,
  0xbe0249fb3d8146d6U, 0x3de16df6bd296702U, 0x3d9042ff3d4524bcU, 0x3b1d3c513dd4baacU,
  0xbbd4e4dc3e0cf934U, 0x3e17d5473c6cd09eU, 0xbc343cc8bcf4ffdeU, 0x3e6cd989bda72b5bU,
  0x3e1eee843d3a289eU, 0xbdaefdbfbdd36923U, 0xbe2a5d69bdb9bc00U, 0xbe0539683e3060fcU,
  0x3de1f56c3e895352U, 0x3e2a11babd06ceddU, 0x3e3b76e43e986e68U, 0x3e81bbdd3cd4f484U,
  0xbc33d3d4be81b53eU, 0xbdda69e7bdd4fd4cU, 0x3e525ef93d8a3a39U, 0x3d45902e3e841da9U,
  0xbd9578d33e02918fU, 0xbe2527523d92cbaeU, 0x3d8bd8ea3c1652f5U, 0xbda379a1be81d41aU,
  0xbe120fcebe3095b7U, 0xbd1a3e62be0a22b7U, 0x3e29f863bcdd22c1U, 0x3dd5fa9fbdd98e6aU,
  0xbca87bc3bd527acdU, 0x3e2680a2bd9670c1U, 0x3d816d453cd68579U, 0x3e361ebc3d6daa1cU,
  0x3e0ec663be57a99aU, 0xbdc55442bc6f0829U, 0xbe66277d3da5041cU, 0x3de191e9be4058b9U,
  0x3d55b4a43dd5e758U, 0x3e3b0c6abe35c542U, 0x3e21eb863d6c72baU, 0x3d308e11bd806f55U,
  0xbe50a1a5bea7c226U, 0xbdc5f8a0be2438b6U, 0xbe7b489e3d31871fU, 0xbd163c7a3d04899dU,
  0x3d9c6876bd863078U, 0x3d91cbe63df0a31bU, 0x3df2b683bcfae9b1U, 0x3e37dd3fbcbb5116U,
  0xbe9c2d49be39e79bU, 0x3d016c323c229497U, 0x3debaa9fbda9a3c9U, 0x3cc95d863c86338fU,
  0xbe3f5966bd8ca366U, 0xbd9187f8bea19013U, 0x3b2b1d71be705cabU, 0x3c077773be8c2345U,
  0xbdde88afbea35f94U, 0x3d372a703dd0dfcdU, 0xbe1ee49ebdaff77dU, 0x3dbe383b3da8eeb9U,
  0xbdf16e7d3da0894dU, 0x3e863f69be3f656fU, 0x3e8e297f3dc6c626U, 0x3dc72dd4bc905cc9U,
  0xbdd4d595be77b27bU, 0x3e2cbf923dbaa523U, 0xbec4ead4be00c851U, 0x3d6503213e55440aU,
  0x3de88c6d3d886abcU, 0x3e3ef9c3bd7e661aU, 0xbab90ea83ea0fac0U, 0xbc9ab273bdee1748U,
  0xbe801e673bd6d88cU, 0x3e25d7473e376323U, 0x3c536dec3d87cf73U, 0xbe3942a13e646644U,
  0xbc4277e33e024f66U, 0xbeff0a9f3cc802c0U, 0xbd5e75c83c7ab0b2U, 0x3d83e26b3dc5b2f4U,
  0x3e01cee5bd016b4bU, 0x3de3330a3e03d616U, 0xbc02a2e4be2672a5U, 0x3d8f645fbe3328f2U,
  0xbd3423083ca64c43U, 0x3d26df3e3e7efcdcU, 0x3e8f5d153c0b7172U, 0x3e5c89c7bdb5ed79U,
  0xbdb4e6ab3d32c2d9U, 0x3e92b23abcfcb499U, 0xbe61cf72bc5e7fb6U, 0x3caa67dbbc609e14U,
  0xbd56ce56be72256bU, 0xbe6bca16bbba3d80U, 0x3e4b5a123bf3dd4cU, 0x3e1c757abe5c8061U,
  0xbe2d024e3e49aa9fU, 0xbda230dd3e965a66U, 0x3c6ed2bbbd8b9254U, 0xbe1464003d29b129U,
  0xbdf9e951bd6e8633U, 0xbe09f3003e74f73cU, 0xbe4573173d6dc4cfU, 0x3d2e2226bc4ba752U,
  0x3da2b2863d07c824U, 0x3e8cbe243aa2347fU, 0xbd81f9a1bd7a8cbbU, 0x3e810962be8d32aaU,
  0xbd082bc9be1c7397U, 0xbd40e8703e87ab5cU, 0x3da45954be4c6172U, 0x3e5ec80b3cf2c930U,
  0x3dc2bf9d3e6fd946U, 0x3e92f13cbd885014U, 0xbc5b8df9bd72eb36U, 0xbdf66180be7e0a6cU,
  0x3c292c37be25b108U, 0xbe0a2702bdb8366dU, 0xbd9524d2bda4a717U, 0x3e32a0f0be3a7c48U,
  0xbdad22773e46f28eU, 0xbe84302cbdb0f83eU, 0x3e6aa69f3bf6b075U, 0xbe5807a8be22659fU,
  0xbdd43e3dbe92fb2cU, 0xbc8ecec63d952175U, 0xbe63034c3e4cb8eaU, 0xbd7508d53edaea01U,
  0xbbc83386baaed401U, 0x3d8fdcb03dbb89d5U, 0xbe5c2e84bc0f2378U, 0x3d9528a2be7cf189U,
  0x3cbc0bcbbd6d04f2U, 0xbe7131203e6069deU, 0x3e33c9363dadedaeU, 0x3e665bab3d9a146eU,
  0xbd4bb3553e593c26U, 0x3df1ffa73d0cce46U, 0xbda41c62bce49309U, 0x3c64f86bbe0e5044U,
  0x3cf091e1be736d61U, 0xbe97336fbe79f1cbU, 0x3e2851a8bdea4874U, 0x3e76767d3c4e4e19U,
  0xbda1d2c13d12b824U, 0xbe865ecb3da108ffU, 0x3df172593e2408d2U, 0xbd78c07a3d1bf8adU,
  0xbbbb8ac93d3ad589U, 0x3d1d6b2bbc6bde9bU, 0xbd811c7e3da6978fU, 0x3cf846d1bdbc4c4aU,
  0x3c18e4aabe16c8e8U, 0xbc0b30aebd48edb2U, 0x3d0b97033d1308e9U, 0xbda02e213d53dca4U,
  0x3d552336bdcb4b54U, 0xbde3af7bbd3214a7U, 0x3d3a4f41bdad9544U, 0xbc5234623d79bb20U,
  0xbdd9bee33d1100e8U, 0xbd5bf68c3d8db998U, 0x3b6f746b3dc15f59U, 0xbdb2f1983d8d0c3dU,
  0xbd33623b3d5c6daeU, 0xbe0c84cd3d37d037U, 0xbbe9fd7c3db01fc3U, 0xbda951733ca07905U,
  0xbd2e27a8bdc397e7U, 0xbd0b4a67bda39f6bU, 0xbd8b3d51bcc4b733U, 0x3ca3457f3d773c72U,
  0xbdc3bc7a3c915e56U, 0xbe0cabffbe00c882U, 0x3cbd11493d61b922U, 0xbdfff2cbbdd15f01U,
  0xbe0f1a1fbc328391U, 0xbda96e123c357bcfU, 0x3bdf3b873db431bcU, 0x3c2b0110bcbfdff4U,
  0x3d3dc432bd85753dU, 0x3cc1270b3d7c31b6U, 0xbde24585bc8c09c6U, 0xbe496f723d490013U,
  0x3d13cf48bdc15411U, 0x3bf6d055bc841477U, 0xbdfcee92bda92f62U, 0xbd5d4268be24832bU,
  0xbdd7a2e73da0a108U, 0xbde171333d3d2de5U, 0xbd3f32f03d90f442U, 0xbd8eb60e3cfb123cU,
  0xbc8f3e4f3c448c60U, 0x3d2034debd06b558U, 0xbc917f403d71cb08U, 0x3d2cec8b3c755b4eU,
  0xbc16eb25be1a6722U, 0x3d4d5c60bcd978b7U, 0xbdabc6033d8f9f69U, 0x3c242f4e3d61f1d3U,
  0xbd9bfdea3d967413U, 0x3d16708ebd8afcfdU, 0xbd32c2cebdbee887U, 0x3d670ad3be0b35d1U,
  0xbcce45b9bda1f276U, 0x3dc79b3cbda5f41aU, 0x3da51e01bd4f05c9U, 0xbd9973843de12c4fU,
  0xbdad6d2b3cb77404U, 0xbd0338a2bd59ff07U, 0xbc6713db3b944d74U, 0xbdd92939bd9bf873U,
  0x3ccfab073d83a037U, 0xbd887e47be263ae2U, 0xbc974393bc245b18U, 0xbbd5813d3d121fd2U,
  0xbdb9a53cbd0f4fe3U, 0xbccb62b43db29859U, 0xbd7df6a7bdbdd179U, 0xbdbdf441bda576ddU,
  0x3d9bccc53dfc19c1U, 0xbd9818b5bdc2fae5U, 0x3e0cbaf03de8cd1eU, 0xbe5b64b9be6f246dU,
  0xbde53a25be679095U, 0xbe0a3fc1be2f56bdU, 0xbe04fc8bbbcd9159U, 0xbd2d63febd6cfd87U,
  0x3decbdeb3dc016e3U, 0x3dbe3416be48dd82U, 0x3da5afb33e90a924U, 0xbcf7bd8ababa3a79U,
  0xbdc65630bea5a171U, 0xbd3cdc42be305cb4U, 0x3df133b9bccedf49U, 0x3e0f3f58bc840000U,
  0x3deb866bbd5701ddU, 0x3cceb7bd38ee80e4U, 0xbe2332703c4ede9fU, 0x3bcc95723d0d48bcU,
  0xbdd43c64be41ce33U, 0xbd59e2e2bc7e97bdU, 0x3e9b4b1abd6ef704U, 0x3e758f89be6eb201U,
  0x3d4a19a33e193036U, 0x3df5658b3e650adfU, 0x3dded24c3ca0d89aU, 0xbd84cb9bbda25084U,
  0x3ddc60b53e36618aU, 0xbd93f951bd5a91b2U, 0x3c948502bcb65fcfU, 0xbe5da01fbbc51562U,
  0x3c13b1cf3e0b3bf6U, 0xbd0aaa3d3dfc6bd4U, 0x3e3e5516bdd4e1c4U, 0xbdaf2f77be0e5959U,
  0xbdb50d60bcdca499U, 0x3d0620a13dae16b8U, 0x3d1d269e3dedcce6U, 0xbe8838d03beb7978U,
  0x3de7b18e3e0f1fdfU, 0xbeae91093da1b78bU, 0x3dbe40393e09bd1eU, 0xbd1dbb673e0ebea8U,
  0xbd1e6e8fbe0a5255U, 0xbe477d333dacabf2U, 0x3e4b7060bb933c28U, 0x3dc16fbe3e194777U,
  0xbc752ed3be43ae2aU, 0x3dee4bbbbdc3e6f3U, 0x3dcbfda8bdcd138fU, 0xbde3b6743df3fd0fU,
  0xbbbde8b33df5b8a2U, 0xbd86dcadbe74c018U, 0x3dc64c96bdc219aeU, 0xbd48c668be035930U,
  0xbc3c3856bc947de5U, 0x3e0a0a7cbe829659U, 0x3dfc2633bd750796U, 0xbe2e7681be478323U,
  0xbd98a78f3e68a439U, 0xbe1a30a13c6c429cU, 0x3e8753bc3dc8a6cdU, 0xbdbdef253e21f2b3U,
  0x3e00fda53e6a93e6U, 0x3e0d495dbd063c5dU, 0x3e00e54d3d0776ceU, 0xbe10d37c3d49db9aU,
  0xbca7723cbed9df96U, 0xbe5a524c3debb85dU, 0xbeb2b6053df1068aU, 0xbe3381e03e7bf91eU,
  0xbdd9c71a3b0bc6ddU, 0x3d9b80c1be252284U, 0xbd9c49fe3e502c29U, 0x3dbe847cbe5135d4U,
  0x3dc43257be273873U, 0xbe184d19bc33ced2U, 0xbd9bbf62bd77abeaU, 0x3d76fdacbcf9bc28U,
  0x3d5cc8e43dc7e796U, 0x3ea596c43cf838a9U, 0x3e9c890138057391U, 0xbd2364e9398e96d5U,
  0x3d11575bbe5a7598U, 0x3e2077243db2d4f1U, 0x3d04465cbd074a04U, 0x3ddabee03e1995a6U,
  0xbddbabeb3d82f398U, 0xbc8577d53e80d2dcU, 0xbd8285653dfcfcb7U, 0x3d6212bdbd351b25U,
  0x3d30ead93ea7897cU, 0xbe02cd85bd83dc40U, 0x3d4d8623be0b0b31U, 0xbb004857bde86f95U,
  0x3d8a8a9ebe1dada6U, 0xbde5e9e43ca616e6U, 0xbdac4ff9bd6b9bc3U, 0xbdab7486be15fe7fU,
  0xbe177b6abe059704U, 0x3e7f7a963d07e504U, 0x3c43cdadbdef8f40U, 0x3df5216ebe54a5bcU,
  0xbdb3d25ebdcce4f9U, 0x3e1034303cb2bfdaU, 0x3d9fbdaa3d875538U, 0xbe0280683e302745U,
  0x3e178d803e8d3472U, 0x3e3c82213dbaef50U, 0x3e64a6a8bc568b15U, 0xbdc50d763daa5e03U,
  0x3d1d4bb9bd98743fU, 0xbe8844803d25a80dU, 0x3d8e76bf3df82c59U, 0xbed7ca2bbe540904U,
  0x3d208471bc00a409U, 0x3d7e72a83e4f4183U, 0xbe91ea2d3998c386U, 0x3d39bdb63deec137U,
  0x3d26ec89be24c2fdU, 0x3d9f28053e2b7b67U, 0x3dd42fecbd45655dU, 0xbe2072603d8e3443U,
  0xbe4525f23e79fd5bU, 0x3d84796f3e385f9aU, 0xbcd710f5bdbd68d9U, 0xbdff0d733c04e91aU,
  0x3bd44ea0be5525fbU, 0xbdfd047dbdc2d192U, 0xbb34252bbd585e77U, 0xbe9a563dbd2532c2U,
  0x3d9561833e51dcabU, 0xbd7dfea4bd1fc232U, 0xbe12e5393db866c7U, 0xbdb1a764be7d0cb7U,
  0xbd1b6b293bbdd6e1U, 0x3e960c2d3dc32a05U, 0x3d36dc9e3d1a4444U, 0xbeca7c363e35802aU,
  0xbd2243b63cc30ce9U, 0x3ed45d3a3d2ddf75U, 0xbe0845fcbd9f6efeU, 0x3d822eb73d89dae7U,
  0x3d9ecd003d5dd65cU, 0x3da4326f3cc8bf76U, 0xbd919bc5bdeec233U, 0x3c9c40383d35c5e6U,
  0xbe0b1da2be1cb546U, 0xbd9c83213dbb7312U, 0x3d4e0a25bded95adU, 0xbce2c6ad3d3797d5U,
  0x3d259948bd46cccfU, 0xbe17bdcabe1a556eU, 0x3cec958ebde4d6b7U, 0x3d54449fbd9897d5U,
  0x3d82f561bdab0022U, 0xbce1f527bd98dfcaU, 0xbdf251b3bcb80b74U, 0x3d7fbcf2bd0024aaU,
  0xbd13ffb1bdc3e0e7U, 0xbd156a0a3cefd2b5U, 0x3e01a1523da20acfU, 0xbc463a823c0eda30U,
  0x3d919b36bd961a9cU, 0xbde6f7d23d378882U, 0x3d573df6bc3c06e6U, 0xbd86170abdd30440U,
  0xbd8e8087bd8390c8U, 0xbd34e4ce3cefdc6dU, 0xbd3f6f003b730349U, 0xbd57d4193d321697U,
  0xbd9d18ccbdbaf368U, 0xbdfb5ec7bda229acU, 0x3d57392d3dcf73d0U, 0xbd64ef3f3a6cd5e4U,
  0xbd4c0bbcbd8ed85fU, 0xbe19a2e0bdb35c6fU, 0xbd39af5fbd9630afU, 0xbd995c7cbcf248e3U,
  0x3cb4c2ab3d7511b2U, 0xbdfb07b1bdc18ad5U, 0x3c5091e1bd0becaeU, 0xbd900fb93d289e8dU,
  0xbc9aff133cea58b8U, 0xbe2337d83d3ad47cU, 0xbdca3e7cbca8d03bU, 0xbc96b150bd41f9a2U,
  0xbe11c0463d669e97U, 0x3aeb2c8fbd8b81f8U, 0x3dc4c7a03cf77044U, 0xbdaa95533d3602a1U,
  0x3b59d467bdd211dcU, 0x3d6d82e93cff03aaU, 0x3d05ceb63d3b2e8fU, 0xbdf224a83d8a4957U,
  0x3d98275bbe033df0U, 0xbdde876c3c0f37ccU, 0xbd237ad13cb8cb1cU, 0xbcad4f423d7ba3ddU,
  0xbb318586bcf49d26U, 0x3d1ddbef3c8b593eU, 0xbe27d93a3cd5faddU, 0xbdd1de923dc79fe8U,
  0xbd92c07c3ca43f3fU, 0x3ba189c2bd858587U, 0xbcd4b74bbd849b4eU, 0xbda1d1c23d1e741eU,
  0xbce63ca2bcf1633fU, 0xbd46edbe3d95dc6dU, 0x3c541e5dbbb80a1cU, 0xbe06d871bda2293bU,
  0x3ba65659bd8c1a12U, 0xbda2ce323d6022afU, 0xbe133c1fbd6e7a13U, 0xbd814f113d303c09U,
  0xbd809bb3bec23d9dU, 0xbe91acb6beb5a50eU, 0xbd50347cbdfda6dbU, 0x3e50ac5fbd1ad394U,
  0xbe7c6255beb6eebcU, 0xbde5ca353ddb1dfaU, 0xbec2f8223df8f9e8U, 0xbe8aa61abe5ceb22U,
  0x3d2ba854be971ecfU, 0xbe942a29be50ed77U, 0xbe50c808bd082abeU, 0x3cd390623e4cd3c6U,
  0xbe3daf05be426725U, 0xbdaed313bc3d8e9cU, 0xbeca2b113dc7c096U, 0xbe24155abe780e2cU,
  0xbd95533fbe5e64b8U, 0xbdfe4f8a3dd0d73eU, 0xbdb8b317bcc51a96U, 0x3da62f563da19dd9U,
  0xbdcd8b8fbeb3b023U, 0xbc30231f3e572937U, 0xbec813993d7de1c5U, 0xbde23263be1326a6U,
  0xbdbc6d18bda295d6U, 0xbda2c1a83e482b3cU, 0xbb7f8bd73dcc8ce3U, 0xbeb68fd93dfe83a9U,
  0x3d68f1413e505e41U, 0x3e9a13d53ddad3f1U, 0x3e68298d3dea73ebU, 0x3e2868c53d236b7fU,
  0xbddee2e33d4cbd3eU, 0xbde9ff9a3e7091ebU, 0x3df3ea84bde574a3U, 0xbee88a553e9cc0d8U,
  0xbdb994c2be77cf24U, 0x3d86a1a93a8de9f2U, 0x3d5c700c3e082de3U, 0xbe20e6ae3e2bdd6aU,
  0xbd681d15bd573e05U, 0x3d45b5143d72e87cU, 0x3d1bfb823dace740U, 0xbe351eae3e5be138U,
  0xbd09f3543e1bf536U, 0x3989259d3d969b86U, 0x3d4436e8bd319667U, 0xbe0ad74dbd88d6c6U,
  0xbcadd9593e61a81fU, 0x3e4467093df41836U, 0xbcb3161e3e1933e2U, 0xbe57db0b3da17bf2U,
  0xbe6221273e6890c5U, 0xbe2e6336bd70ffa0U, 0x3e0f2d403dac3343U, 0x3c55dd893dc86ca8U,
  0xbdc2628bbd37c424U, 0x3e5eb4663e0202a0U, 0xbe2a50d23c833c39U, 0xbe374350be1e6d60U,
  0xbd25c3233dc62054U, 0xbe51b057ba79d505U, 0x3e0c828e3d442199U, 0x3d440291be12a048U,
  0xb975827fbc07cb6fU, 0x3df786a2bead3be7U, 0xbe3c5661bd8c86d2U, 0xbe04eb80bd451913U,
  0x3ca0fccfbceabc11U, 0xbd44d091bd81e074U, 0x3def68063d656b1dU, 0x3c7dc342bd2e2b14U,
  0x3d1cc63fbdd73badU, 0xbdacaaeebd5a76d0U, 0xbe216058be1dfa71U, 0x3d6e5557bda3e45eU,
  0xbe54052a3d70b958U, 0xbe3525e13c70c1dcU, 0x3dcf922abc64a9fdU, 0xbc3e75efbdeca847U,
  0xbd86a426bee7b535U, 0x3c977bf5bbd456f4U, 0x3d5e6c2ebdd6f770U, 0x3bfa7379bda5e332U,
  0xbe918b543d8b511eU, 0xbe4eeff8bd8b6c4dU, 0x3d9f46633cba4cd7U, 0x3c2f45a1be1333c1U,
  0x3dec08dabded0432U, 0xbe11e3233bf45ab8U, 0x3e12bbdc3e0f9393U, 0xbc4adba6be35fd1bU,
  0xbdd70d633dafa53cU, 0xbe20e420bd211dc0U, 0x3ddbb4b33d53e004U, 0xbdc3f1e03c884fb7U,
  0xbc1230713e98fdbaU, 0x3e532e563da24c75U, 0x3da07526be0a39f8U, 0x3e8f32c6be4a3c81U,
  0xbe05e7ce3e19dc1fU, 0xbe171eba3d4deb14U, 0x3da18bd5bcc4feb0U, 0x3d21a41f3e97d452U,
  0x3d49bc883d54c22dU, 0xbd3ff9753cdb0a3eU, 0xbd15076cbdc95828U, 0x3bb547583d012d04U,
  0xbe2a0f783e8628b6U, 0x3cfcb4a93df14287U, 0x3e70f8d8bdb8165eU, 0xbd78264a3d0f583aU,
  0xbde52c99bd8162b0U, 0xbd2d9da63d81062dU, 0x3daec252bd6c521dU, 0xbd1dc689bde97c7bU,
  0xbdd95e123c554dcbU, 0xbb56755abe1e33d8U, 0xbd95043cbcdc4bf9U, 0x3bf14d843d589ee9U,
  0x3c8955ab3d1c5b45U, 0x3e2a03943e887cb1U, 0xbe7940a1bd1a4b04U, 0x3d02eef23d79a5c5U,
  0x3e06a86d3d2be82aU, 0xbdc6ac46bd1df3e2U, 0x3d36d2b6bd91d93eU, 0xbdf54c503e71d28aU,
  0xbc3fc15d3d84ab3cU, 0xbcee37e63d7388dcU, 0x3b6f1e34bd1ffac5U, 0x3e78f3563e98fca8U,
  0x3a307a40b8c7d178U, 0xbe76fc123de78005U, 0xbe995edf3d3df994U, 0xbe8a49303e05507eU,
  0xbd0364553d195eb9U, 0xbe8a4cfb3db95ceeU, 0xbe87814fbe537b56U, 0x3cd082d63e05c489U,
  0x3cb0be79bdad9807U, 0x3d6ba3bfbe4195f0U, 0xbe75011e3d1671c4U, 0xbe49b86cbcc336f3U,
  0x3bf91c283e4f364aU, 0x3aba317f3df69737U, 0xbdd708b73d05f782U, 0xbe0d778a3e8a1699U,
  0x3e18a25bbd87310cU, 0xbc85bed2bdae97c8U, 0x3d097dc7bca458c3U, 0xbe1eac363e1e657cU,
  0xbd832d1f3e566718U, 0x3e4d03f1bdcaa1fdU, 0xbe8c57b0bd09fa16U, 0x3d81c8a43c802861U,
  0xbbcb43c7bd996c74U, 0xbd8c64a0bc8cb915U, 0x3dd96d6b3e227427U, 0xbdf26bc83e1d738dU,
  0x3b8c7daf3df7bda8U, 0x3ea245c6be037f8eU, 0x3ca0b2853e78e14dU, 0x3d45be813dad1397U,
  0x3d4d944c3e0e3bcfU, 0xbe130c6dbd6a8c92U, 0x3d9f134dbc484cf4U, 0xbc86d1303d0693b3U,
  0x3cf706d4bdd0a1a5U, 0x3e9bc0873de53607U, 0x3bd6051cbbb2e637U, 0x3e9770afbcf0b502U,
  0x3e2e5eefbce633b2U, 0xbc44b26e3d121823U, 0x3e3be8fcbd3ed7deU, 0x3e3c5951be093428U,
  0xbdaced4c3d8c5400U, 0x3e9a1016be01008dU, 0x3e5ba1213e687408U, 0x3dac8018be1074deU,
  0x3c75ba57be6e0ff7U, 0x3d4809dfbbfaa0c1U, 0xbddb6c1b3d57ab9bU, 0x3d99bc9a3d4f1021U,
  0xbd80160c3e3b0bb3U, 0x3ed5bbf6bea73cc2U, 0x3e038edd3e2aab90U, 0x3d91f7c63c67c561U,
  0x3d89ef6dbd853e9fU, 0xbd268b4abe0fbd16U, 0xbd990a363dbfdc6fU, 0xbcab05bebd6745fcU,
  0xbd20e87ebc480256U, 0xbd9815463d7ebf9fU, 0xbd9e094fbdf8361eU, 0x3d9c28c13ead548fU,
  0x3a914c47be0884b4U, 0xbe5d5d073cdfad70U, 0x3e048a3dbcd9a6caU, 0x3dc2074f3d8d0ebdU,
  0xbd89961fbe47ab43U, 0x3e33e8a3bdcd6b83U, 0xbdb649493dbaae44U, 0x3dcb89ec3e58adfcU,
  0xb7b59090be3265f3U, 0xbc60d52a3db90757U, 0x3d80b163bde4749fU, 0x3e0a518fbe06e3ffU,
  0x3de71f6dbdbbd647U, 0x3e9bced2be7b5269U, 0x3e013d54bd6cd79fU, 0xbe2e4ff23e8abf3bU,
  0x3d5ad1edbeb177e0U, 0xbe3c8d01be5ffce1U, 0xbe2f4c353d3061e8U, 0x3e1407a7bd1402d3U,
  0x3d974283bd680c0bU, 0xbcd689cb3c1ae81bU, 0x3d25e59f3d8a7f62U, 0x3c1f4f6abd8b155eU,
  0x3d217acb3d17653bU, 0xbd6953d83d83ece5U, 0x3cbf4967bd9a148bU, 0x3d9f88abbe1b3b38U,
  0xbcb18816bdad23ffU, 0xbdf7b4e3bdf467b0U, 0xbdd43bf33dd4305bU, 0xbddc71b7bd36801eU,
  0xbd130750be239afbU, 0xbd21db843d1499afU, 0x3c94b9dbbda79882U, 0xbe026539bdd168e5U,
  0xbdc880f33d2a4934U, 0x3d8b04633d06af0dU, 0x3d07d54bbdb3d13fU, 0x3d0fc23ebd638de1U,
  0xbd15ae12bd04f590U, 0xbd1ee770bd76aaf7U, 0xbe0abb043d1c3f68U, 0xbb716af3be31bb76U,
  0x3cb64b78be174ef3U, 0xbda85aa43d4a656bU, 0xbd05fce4bc73ba4aU, 0xbcf98e10bda1e6adU,
  0xbd84badebda3f8dbU, 0xbd795ec93c56897fU, 0xbde4f3793d81920fU, 0xbcd09c71be034e4eU,
  0x3c8c8900be1002b8U, 0xbd994c0dbd458ca4U, 0xbddca51cbd8b8b1aU, 0xbd836b093d1c8235U,
  0x3cd6ad903ccba25dU, 0xbdc43c48bbf82f9cU, 0xbdfa8460bde061b7U, 0x3cde2c653ca484cfU,
  0xbd5d80adbdd5419aU, 0xbe04900cbdc92fb1U, 0xbda0c1e6bdd4affdU, 0xbcc2fa2e3d0333deU,
  0xbdf892cbbddda6e2U, 0x3dbf3a31bcb7e39bU, 0xbc4c1b8e3c796448U, 0xbdc371443d8dcd7cU,
  0x3ce0b293be09e2efU, 0xbb02c0a03ccbaa68U, 0xbe163275bc691c74U, 0xbc223bdfbc8024e1U,
  0x3b9f422fbe0807c0U, 0xbbc78ef6bc31d23dU, 0x3d27f4ad3d89b3daU, 0xbe11e22d3d52f15cU,
  0xbdf8490bbd81d0e1U, 0xbd8fcc8cbe034521U, 0xbdca0903bc4bb824U, 0x3dbc7d883d600b0dU,
  0xbdab9786be0f8d11U, 0xbdfdaaab3cd6365bU, 0xbdccb8b03d67ad32U, 0x3d5093cabde2d593U,
  0xbd170bd8bd4c53e9U, 0x3d8c3accbd9606edU, 0xbd2454b9bd0535feU, 0x3d1d20fe3cb43d27U,
  0xbe0e0cbe3a9045e0U, 0xbe0663e6bd920d4eU, 0xbcc478ab3d50c5f9U, 0xbda6fa48be0363b5U,
  0xbc49aa593de234e4U, 0xbe2255c9bd9383e5U, 0xbd96a7dcbbb5d048U, 0x3db47776bc19baddU,
  0xbe0009e4bde82253U, 0xbcb6156d3da2ebe9U, 0x3d1da238bd721380U, 0xbc23b9b53d5c418aU,
  0xbd99b1c7bd7abc37U, 0xbdc63831be1561ddU, 0xbe0d55f3bdc73519U, 0x3d2fcc2a3d493b0cU,
  0xbdf86f76bd9071b2U, 0xbda4d196bdb126a2U, 0x3c59dfecbde899edU, 0xbdff2a55bc38648eU,
  0xbd1ff7393d06b1fbU, 0xbd36b6bb3c864809U, 0x3c1f228bbd511cebU, 0x3d8e804f3db65cc4U,
  0x3cc01cd4bdc19592U, 0x3d252be0bdd71425U, 0xbcaf25673d0bb176U, 0xbda0e2a43de62cf1U,
  0x3db97aa13df24c1dU, 0xbdfabd4ebdbddd08U, 0xbd46ea03bd1c40f2U, 0xbd6902673d8b4426U,
  0xbd37fa54bb1a97caU, 0x3ca95677bd4f0b10U, 0x3c9fb41fbd6f7edeU, 0x3d883d8f3d218a45U,
  0x3d849736bd1f4213U, 0xbdbce22abe1120d8U, 0x3d3061abbdd5b188U, 0xbe2c07a9bd94c344U,
  0x3c919003bd9d709bU, 0xbd9c990dbd23b2ebU, 0xbc821529bd7352b2U, 0x3be4890ebdcb9a60U,
  0x3c05eb62bbda11c2U, 0xbe02b043bda38778U, 0x3c3501febcd5ab14U, 0xbd9871883b8edf72U,
  0xbdd226b3be4ce088U, 0x3d4ef890bd9e1f99U, 0xbd2e8a5fbd1d7f63U, 0x3d9928ef3de9fc25U,
  0x3c4d193d3c2b08b0U, 0xbce10021bd3cbc54U, 0x3d71db2dbd85208eU, 0xbd2d8e04bacb1a0cU,
  0xbd9e42dc3ce03484U, 0xbe10ac753d9085b9U, 0xbdc4af273d85474fU, 0xbdf4b197bdd1d704U,
  0xbe002816bd8ff78cU, 0xbc7e53a3bd5ed989U, 0xbdb7bfe53d456d97U, 0x3d98675bbcb16ee2U,
  0xbd77b20cbcf11332U, 0xbccb0ed23d93fcf3U, 0xbe0e535dbd27ab6fU, 0x3cc6d7c1bd9c884aU,
  0x3ba829babcd93b02U, 0x3db4421bbdae6e79U, 0x3cd23911bd83b771U, 0xbbf0f5c83da66385U,
  0x3cc0be03bd9103beU, 0x3c33e3433c196beaU, 0xbde995cfbc11d92bU, 0xbd0c496abdd1993eU,
  0x3d21cdbd3e0ec25fU, 0x3e69d9c23cb7cff3U, 0xbd12def03c7c43e0U, 0xbcc633c33dff5c4dU,
  0xbc0ddeacbe93163dU, 0xbce26acb3ce6398aU, 0xbe0538ea3d6a89cbU, 0x3c145f273d541bfcU,
  0x3d421d3f3ca0f5beU, 0x3e0da1893da2ce2dU, 0xbda7ef0fbd9b97ddU, 0x3d636ebc3c59a1a3U,
  0xbd0e0951be47dbc8U, 0xbd0c8cfdbda4c2c0U, 0x3d2ec88fbb59a983U, 0x3dc515b0bd329d2fU,
  0x3d5993393da6e108U, 0x3e49ff7f3e197db0U, 0x3e67f67a3d4f8cb0U, 0xbe6d6d803e2b823fU,
  0x3e0038673d8446afU, 0xbdc0fc303cfc0375U, 0xbd0e7e42bd08dcfcU, 0xbd243120bdce32daU,
  0xbcd93a813d8c981eU, 0x3e4d66c7beac3894U, 0x3df87401bc24b322U, 0xbd8ce62d3e0bfb03U,
  0x3e27ded6bee2487bU, 0xbd447bb4bea3efb1U, 0xbcba7af7bdc9c97dU, 0x3bf870b13e957f95U,
  0x3d869ed53d509d96U, 0xbe7fcf7abc9221a6U, 0x3b00612fbcc3599aU, 0xbd823b373e6d3988U,
  0x3c24ede0bdbc684dU, 0xbe33d484bc8f95daU, 0xbdbc54bdbda965c6U, 0xbe7577e8bb2b5cf6U,
  0xbd53ed55be2f2a50U, 0x3e015d70bde56ff5U, 0x3dac4ca7bd6dc5c9U, 0x3bab9b103d54a2a1U,
  0xbe2143e63cd701d2U, 0xbe0334a43d6589deU, 0xbc09b7d8bdd82b4cU, 0xbde5dd2bbe281e8eU,
  0x3dbd84983b90d159U, 0x3ea6d8903d3d1895U, 0xbdd182793e23974dU, 0xbd19148a3e4df549U,
  0xbe8923a33e408610U, 0xbc7d7aeebea8d4a2U, 0x3edfddc63d51d55aU, 0x3e91ec3ebe004f49U,
  0xbd4e20133da517c7U, 0x3d98d52fbd8e3987U, 0x3e76848b3d09a80bU, 0xbe65cdfa3eb59125U,
  0xbdc47968be940a84U, 0xbdbf92133db1aab2U, 0x3ccb0303bd6ae21eU, 0xbda1419a3e220717U,
  0x3d72dd27be27a1e4U, 0xbe3da66cbda3eba1U, 0xbdebfe21bdab1ed5U, 0xbd0133cfbdab7b2eU,
  0xbd9a57f43d9de672U, 0xbcdcb764be7e97efU, 0xbdd0a7f13d06308bU, 0xbe438e7cbe5c07f1U,
  0xbd51b553bde15d61U, 0x3e0e1f98bec1b30dU, 0xbcc1c576be6b13a3U, 0x3d9006ed3d56c758U,
  0xbdb6a4573d4070b2U, 0x3cab963ebd57d659U, 0xbd51523a3b9e0a8eU, 0x3e17d021bd1e8220U,
  0xbe40d6b4be3d98d9U, 0x3bb7e7efbda29c93U, 0xbd50632fbc2bf90aU, 0xbc5e8247be1950f9U,
  0xbe75df8fbd78e2feU, 0x3e138facbec39a53U, 0xbd204093bdbc963fU, 0x3e639b64be839e60U,
  0xbe19813e3d835e34U, 0x3d1b5fb63da8c3b0U, 0xbec3b1bbbdb227bbU, 0x3c86ac2fbe94268dU,
  0xbe41f1a8bdd96eafU, 0x3dc9bb0bbe30bf5cU, 0x3d7e4ead3db5d4b6U, 0x3db3eac9be74113aU,
  0xbe17b075be71699eU, 0xbe0746ba3ded0155U, 0xbd24b516be12b907U, 0x3e4598a3bdf95c10U,
  0x3d930399be1ce7b0U, 0x3e90bb30bcfaab56U, 0xbd20ad053dc36c31U, 0x3da7b29f3e1557a1U,
  0x3d1e3e10bd11b8efU, 0xbcc9e82c3e555fc6U, 0xbe9fb76e3cec02baU, 0x3e42a69bbe031794U,
  0x3d651be7bd927e0fU, 0xbd14b9b13e0db2cbU, 0xbe8f5887bd4460d7U, 0xbe848dd0ba279ad3U,
  0xbce78ef7bcb1259cU, 0x3e2a566f3d45250cU, 0xbedd5e95bdebeab6U, 0x3e8b304f3c9864dcU,
  0xbcf5279dbc7068d0U, 0xbe77a1e23dc01d43U, 0xbe1f484abd3587fcU, 0xbea99eb93bfb8a59U,
  0xbcfcea233d48bb70U, 0xbe10282c3dcfe679U, 0xbce6aaf53d4fee14U, 0x3d11ccad3dff4088U,
  0xbe3fcfe6bbb00ee6U, 0x3e265b4d3e68f272U, 0x3d8fa68ebd611471U, 0x3cf0d60bbd057891U,
  0x3c4dc23b3e1516c2U, 0x3e852fc3bdab075fU, 0xbe18bbd3bd2da0ebU, 0xbbd944ae3d93edf8U,
  0x3ca0cfaabd34a6ceU, 0x3dadaf64bd8e3ee2U, 0xbd0b8decbd6aca22U, 0x3dbf6f043c54d6cdU,
  0xbdede38b3dfc3387U, 0x3e0b0cb9bbd06184U, 0xbe3db9ecbd9b34a6U, 0xbdad42ce3e099dffU,
  0xbe1a5b8fbe308f22U, 0xbde35cb5be4219aaU, 0x3de87699bdb8c11eU, 0x3d71031dbdc6dc4fU,
  0xbcdf2e7a3e006022U, 0x3c5108f5bd799d8dU, 0xbe1a647dbd3ea715U, 0x3e7ea2233e791da7U,
  0xbde5ef12bd801357U, 0xbe0d86ad3e3f8847U, 0x3e14484a3d871b12U, 0xbe0e11173e45fdeeU,
  0xbdf01573bcbdaebdU, 0xbd8583adbd6dbc9eU, 0xbe393b993dd9c81eU, 0x3df910be3d954292U,
  0xbe473a9cbd2f5908U, 0xbddc09ee3df300abU, 0xbd063c783d899bccU, 0x3dbed2443dc45ab3U,
  0x3e11b48dbdc49047U, 0xbe1b369dbd065534U, 0xbe9b9116be135768U, 0x3de3ac3c3badf410U,
  0xbe11688c3e1248b3U, 0xbea808ddbe3a2fb6U, 0x3e140e7f3c0fac60U, 0xbd49ed31bd20a671U,
  0x3d1b579dbdf8e116U, 0xbdeb0e84be9dd3f9U, 0xbdfe6a3fbdbb0dc6U, 0xbc7b1778be623a16U,
  0xbe4ed9dabda6d736U, 0xbe9d54803e61c5a5U, 0xbc152565bd6ef7bdU, 0xbe99cc5b3dcbbd8fU,
  0xbdf5a64cbd9cf88dU, 0xbf2648e73b0ad151U, 0x3bf14e4c3d04176eU, 0xbda1f857be105ef3U,
  0xbed53ac0bd6a9386U, 0xbe6ba2db3db0d6adU, 0xbd941b2a3d9b85ceU, 0xbe068cbd3db9b617U,
  0xbda9270fbe469d63U, 0xbe4a1301bdace43fU, 0x3d79791c3d2751adU, 0xba70e29abe84d7cdU,
  0xbe44f88a3e50a9beU, 0xbe159ae4be0f4cb0U, 0x3dc37b68bddef14cU, 0x3d941c3bbe08cea5U,
  0x3d084dc1bba6b84cU, 0xbd904a85bd766545U, 0x3d8b15dfbda72802U, 0x3dc5b192be4da41fU,
  0xbe86ee7dbd99e545U, 0xbeab3bcb3e5d25e8U, 0xbe6b3228bda9a73cU, 0xbe82922e3e6f33dbU,
  0xbc9dbe89bdb0c062U, 0xbe84aee33e71fd3dU, 0xbe5b8c083dd9c455U, 0x3e80157d3e102440U,
  0xbea97a333d2a8d2eU, 0xbe485a323d80fb4bU, 0xbd47f3783d650f12U, 0xbead7d78bcae5794U,
  0xbccb4f77be3ce485U, 0xbe939619bc8945d5U, 0xbe957cb6be3ec26dU, 0x3e20bb843d8578a5U,
  0xbd9bb5ec3e3d0c21U, 0xbf113110be0d1fd7U, 0x3e939f853d9d43ccU, 0xbe4a7995bda688cbU,
  0x3df596bcbe440003U, 0xbd1009e7bcd1a721U, 0x3d5bcbba3dce57d6U, 0x3dd7a809bd60127dU,
  0xbd65f0dc3dd62f87U, 0xbd8d6327bcf4b3beU, 0x3e539f5bbd4bef67U, 0x3dda7191bdbdec8cU,
  0xbde1ece2bc43e091U, 0x3dc972dfbe657f64U, 0xbe96bdc63e3e5d35U, 0x3d808874bd81dabbU,
  0x3d1fa778bde10142U, 0xbd0a02b2bd1f0214U, 0xbe06a2cebd86d6dfU, 0x3e0940f43c054754U,
  0x3bdaf59b3e3f3c89U, 0x3e6b81ca3da8440eU, 0x3dfed9633e4d4860U, 0xbcb0b01abd9141eaU,
  0x3d8493bfbecfad7cU, 0x3e404fa73e59cffeU, 0xbed173813ddb3766U, 0xbdf9cf7a3e0e44d5U,
  0xbdbd63153d462bfbU, 0xbe25cb66bd965197U, 0x3df9f320bd2b3556U, 0x3de7131b3dc1f7e7U,
  0x3d6006ea3d1c8ce8U, 0xbe2b2d49beed80f7U, 0xbd897d483d21799eU, 0x3c9dafacbd231dc1U,
  0xbd4c9d223d61f774U, 0x3eb36ee1be3907dbU, 0xbbe838d13e2fadbcU, 0x3d93efb0bc515922U,
  0x3c9b1fb93d90bdecU, 0xbe8d2c44be4afd0eU, 0x3e9687bebd8a7289U, 0x3dd95c4a3ca377cdU,
  0xbc16e07a3dcc277eU, 0x3eb67ca6be091182U, 0xbda05e083c661235U, 0xbdd8b5753d60a55eU,
  0x3dba4a07beaca8c6U, 0x3e1c0bafbd453b6bU, 0xbd9b80863d9db255U, 0xbdd7e88c3d4fe6b9U,
  0x3d0275833e214e03U, 0xbe0a4ac8be580a5bU, 0x3ea7e7af3d7b030aU, 0x3dfc5afcbd81ec7fU,
  0xbd668a393cd178b6U, 0xbe5479f7bea03b09U, 0xbd16ff2f3d962791U, 0xbe0af6403cb4d62aU,
  0xbd6928543bd0b266U, 0x3e6117f1be84530cU, 0x3e82c6123e08ab0dU, 0x3d4c01c53d4ce3c2U,
  0xbe2babd23e63fb2bU, 0xbe41c795bdaf3c48U, 0x3ea102c13d4f7290U, 0xbd6d35e93e3ed90eU,
  0x3d2d191a3dca8a7fU, 0x3ea1d0e7be33ed45U, 0x3d596aa13e2e2c38U, 0x3cf6c2283cd75495U,
  0x3d4523d83dcb74c8U, 0xbe610bb53e48e822U, 0x3e63f4823ddfc615U, 0x3d9482e63e725509U,
  0x3df687b3bd5b15c3U, 0x3d7179d6bdbc06c5U, 0x3ca40aac3ac90bbbU, 0xbdd39b383c0f1e28U,
  0xbd9d8947bd26506aU, 0xbca51d94bd2a6d19U, 0xbc3adfbcbe0c4429U, 0x3d6f357c3d7a99fdU,
  0xbdcc1ab43cbbac93U, 0xbc9f4b72be0ceab0U, 0x3a5bac39bd6a2e95U, 0xbc2940353d729d04U,
  0x3d9917533db89422U, 0x3c0286f23db49ed2U, 0xbcb2de643d3dada7U, 0xbd836111bdc7a0e6U,
  0xbb4882213b450cecU, 0xbdf4a70bbda79a23U, 0xbdedba283c3b7e20U, 0xbdc710783cf3552cU,
  0xbdde13c53d6bd67aU, 0xbd5934cb3d83b3adU, 0xbdabde7e3bb357fbU, 0xbd06bd5b3c2574efU,
  0x3dd4cb70bc92ab43U, 0xbded8d43bd0d10caU, 0xbe09a6aabda2c5e6U, 0x3d91caddbc1c96f1U,
  0x3d8513c8bd9b3537U, 0x3cbcfbc73dce5a11U, 0xbda1d586bd70bac2U, 0xbb3ef709bc2394b0U,
  0xbdac9455bc6c0a38U, 0x3db4431c3d1bcd27U, 0x3dc6307dbd0e53b6U, 0x3d85cab53c9fda7aU,
  0xbcd9245fbdf53d06U, 0xbd89f17dbd1a3de2U, 0x3d0c83d3be067c11U, 0xbdcdd968bdc0d0c0U,
  0xbd6ed9e83cbcce2bU, 0x3ca1094bbdeb4b9aU, 0x3dabc8ca3c4ed148U, 0xbde98840bc909567U,
  0xbcd2be6abc75b90aU, 0x3c1b6b91be0a762aU, 0x3d2f2ab33d63f76aU, 0x3c79f5033c61827bU,
  0x3dc71770bd12ba62U, 0x3d32da91bdebbdd2U, 0x3d5fc131bd2c1d22U, 0xbc10dac83d096cc9U,
  0xbdeed624bdbceb8bU, 0xbd8ea8c9bb9c3ab1U, 0x3d6c56933dac38aeU, 0xbd95b09dbaa04666U,
  0x3d155fdf3ca3988eU, 0xbd08fe973c0c95c3U, 0xbc309f4dbbe7c031U, 0xbe0d7446bde7ba59U,
  0xbbc7792abdc75a90U, 0x3c3bc932bd529a97U, 0x3cb82c9bbc99479eU, 0xbd9c279b3d43c4eeU,
  0x3d737ce43d539cfaU, 0x3d189825bd3262aaU, 0xbda79851bbc1ee42U, 0xbdc2198ebc9d89f2U,
  0x3b6102d2bd731161U, 0x3d141d9d3d1ca135U, 0xbd200e4bbd2de656U, 0x3daaec68bdd3477aU,
  0xbb1ae4f13b4690faU, 0xbe1d47ef3cad9f52U, 0x3c249068bc32601dU, 0x3d2a0585bc58d582U,
  0xbda54940be2d329aU, 0xbde1a28c3c4af83fU, 0xbdd9e2bcbd220b96U, 0xb9c1e571bd92f507U,
  0xbd0d9811bc0f4f47U, 0xbda9bc08bcf42e46U, 0xbe244e71bd94d2e5U, 0x3d6d38743d5631beU,
  0xbcb1b2b1bd47f668U, 0xbd876e043d5b3e33U, 0x3d41580abdc38d69U, 0x3c4c72053cfeb237U,
  0xbdc024d3bdbe5f13U, 0x3d8ec94dbdc45eaaU, 0xbdd3d4f9bda96a17U, 0xbc6d9901bc954769U,
  0xbdb5252cbded7284U, 0xbd813c9bbda70ec9U, 0xbdea8ec03d84a8ffU, 0x3d2613283d24d809U,
  0xbdc3c9d0bd9916b4U, 0xbd680906bdb62603U, 0xbd2a985ebd5677e0U, 0x3dacf6cbbda91ce4U,
  0x3d276871be0b048eU, 0xbce9151dbe16d660U, 0x3d7d329cbdd43b0aU, 0xbdaa61183d901027U,
  0x3cb5f4abbca7073cU, 0xbd8242dcbc044ac1U, 0xbdcb9e3cbdf49036U, 0xbde17c3ebcc9c944U,
  0xbc92701ebd8c385fU, 0x3d88fe973c6d5959U, 0x3da9c7653df0cc0eU, 0xbe05684bbdab5fe5U,
  0xbdc7e01f3d64a95cU, 0xbdbefab33d7f792dU, 0x3c4c5e77bdb2cc2fU, 0xbde07ecebd40552fU,
  0xbd77b6b6bddc8923U, 0x3cf12372bd9f1af5U, 0x3d5da5c03ca5a382U, 0xbe14d945bd737e44U,
  0xbdf72ebe3dd408b1U, 0xbd4001ecbe06fa41U, 0xba391d35bdabcaffU, 0x3d47e4383dbf9873U,
  0xbd636871bbc79068U, 0x3c985c4c3c66e3e1U, 0xbd4f5a643dc42912U, 0xbdbbd5e7be1bfa50U,
  0x3d026a88bde4a69eU, 0x3dac20f7bd99eca8U, 0xbc445655bd06fac8U, 0xbd4e7438bd72bd7eU,
  0xbdf95a58be4ffe5dU, 0xbd6282b2bdbb967aU, 0x3db4d5ec3cb75df1U, 0xbe0629c2bd042b9bU,
  0x3d109030bdc8f9b1U, 0xbd8e06323d407a85U, 0xbdbc9ea33c3e9038U, 0xbdbd3b55bd96904cU,
  0xbe315f013d8bd1d9U, 0xbdae9ae4be29a8a8U, 0x3d1064283ccb8a1fU, 0xbc52e41abe11da27U,
  0x3ae4b59bbd92d6acU, 0x3dc386213d34b64aU, 0x3db70092bd91b5d4U, 0xbdbed9f03d4f146cU,
  0xbd4bed61bda20c93U, 0xbe058b983dbebbb2U, 0x3dd1940cbd9966e1U, 0x3d5d46cd3c17ce35U,
  0xbddbe54abd9e0077U, 0x3da8c748be324316U, 0x3d8d7d33bd3898afU, 0xbe00055abdd16013U,
  0x3cc547a83cb2f9eaU, 0xbd95bb7d3cad436cU, 0xbdf9361c3e093b2bU, 0x3c96d66bbe147826U,
  0x3db48c79be112431U, 0x3d281bf2bdaf9355U, 0xbd1900e23d92d168U, 0xbdf529aa39af5dd7U,
  0xbd69bf38bd3517d5U, 0xbd08407f3d05f03dU, 0x3d97d85abdbe24e2U, 0xbc8aa1253d62c12aU,
  0x3c9c77c6bd6e8fe7U, 0xbd917e64bcc6e6ffU, 0xbd62e5e03e06aef2U, 0xbe0498643c10b1b0U,
  0x3c94da3fbe2fee3fU, 0x3dae7fb2bd877c11U, 0xbd193c5dbdc79c56U, 0x3d80ce27bcd50acfU,
  0x3db11c15bdf5b327U, 0x3bc6de41bd075495U, 0xbddb21ecbd9514c2U, 0xbd5ace5fbc1d8878U,
  0xbde6e4093d61da25U, 0xbe0d800abe28e775U, 0xbd8229353d804eb5U, 0xbe0eb0b1bd70c816U,
  0xbce2798a3d7143afU, 0xbdb355b0bd996a3aU, 0xbd61ea0ebdf4b928U, 0xbdc27efd3d7446f4U,
  0xbd401408bb6c771dU, 0x3d41c071bde3dd0dU, 0xbb0f6f5eba87e4d3U, 0x3cd941c4bd235251U,
  0x3d68199abe09b326U, 0x3cc3767c3c1cb3c4U, 0xbdb1376b3db4134cU, 0xbdda413abd5707d7U,
  0xbd6a34bdbd85494aU, 0x3d1371333d8daf0cU, 0xbc94c37abdd1aad4U, 0xbd713a1e3d63edc2U,
  0x3d8b63563cb13b31U, 0xbdbd49993d1b7905U, 0xbd84c304bcc9cfbdU, 0xbe3c3bf93d716053U,
  0x3cbe87093db0ba76U, 0xbde4be46bd4c506fU, 0x3cf46fadbc6ed930U, 0xb700b6ac3c9dbe93U,
  0xbd8f5f96be1fd287U, 0xbd847ce03c95cb2fU, 0xbe1a369bbd92a045U, 0xbd204fbabc4efe54U,
  0x3d13ce59be053182U, 0xbd35756a3d736966U, 0x3db6fb5f3d22e0a4U, 0x3c822e983cc520a8U,
  0xbbd1e5e83e5a2c99U, 0xbe85934dbea90d8bU, 0x3e95a3f4bdb89d09U, 0x3dbaa058bd8dc75aU,
  0xbe82781ebe936840U, 0xbe8eeb133d7b8143U, 0x3e64bff33e1c0e42U, 0x3d99b49c3dccadd2U,
  0xbb1a1944bc25127aU, 0xbebca4b4bc604563U, 0xbe051927bd6af645U, 0x3e31f984bd8a2f67U,
  0xbe7b18c5beda48b4U, 0xbd80d5b13d256be9U, 0x3e0c3da13cfde6a5U, 0x3dbe2d55bda0027fU,
  0xbd679b033d837d4eU, 0xbe5784973e4e8d4cU, 0xbe8a5ffdbe1131c7U, 0x3dc1bff5bc988035U,
  0xbe13e70bbea7b5b3U, 0x3ed072753dc0231dU, 0xbe1fa82f3d7befaeU, 0x3e43a543bcaee026U,
  0xbdaafd643cf3acb1U, 0xbcf56bd53d94d2d4U, 0x3e2e02023db4f0c7U, 0x3e3442453d861ed7U,
  0xbc86ba41bebfe3b3U, 0xbde85b4abe076829U, 0x3cf9ab4dbd72c63dU, 0x3be2d23e3dea60baU,
  0x3dd03208bd592d5fU, 0xbe5237363d5ebba4U, 0xbdd20a443d928de3U, 0x3dee1e7c3d943f43U,
  0x3c80545abe08112cU, 0xbe67c22e3c1b6ce5U, 0x3cbf5522bd1bfabaU, 0xbdd9d1063e56c527U,
  0x3e0866f6bc8fdb77U, 0x3d54e1553e08cee5U, 0xbe6053133e4bdf49U, 0x3da52f923ce874feU,
  0x3d4655f93e1d5639U, 0xbe67908cbe4dfa39U, 0xbe1e24343d3ac0e2U, 0xbe74e929bd78331cU,
  0xbc81a1343d22b3aeU, 0x3d05fe2ebd130746U, 0xbe3738433c5ad565U, 0xbb6bf6673d95cf51U,
  0x3cb78146bc1183bcU, 0xbe73c683bd029fdeU, 0xbe2eeea6bddd2e14U, 0xbd2929b73d1755ebU,
  0x3dc5b56b3d09b7e2U, 0x3e31cf26be37af51U, 0xbe2634b73d29f14fU, 0xbbb43f503dc2374fU,
  0x3e080ca03c23faa7U, 0xbdaf1ede3daf4976U, 0xbda5753fbc80ad59U, 0xbe0fb7c2bdacb2dcU,
  0x3d9f8e1fbd447073U, 0x3e05e27dbee0487bU, 0xbe93509f3d1718d0U, 0x3d530103be54992aU,
  0x3c831b5b3e17bbecU, 0xbe7df917be4b591dU, 0xbc187e13bd931609U, 0x3d748efb3ceccabcU,
  0xbd3bb29fbe293a81U, 0xbd0d6bd5bda15ba6U, 0x3e82c4443e06fc11U, 0x3c9933cabe0778f4U,
  0xbe3950363df27da0U, 0xbdd067b53d8d1330U, 0x3dbd94c8bbd0d40cU, 0x3a8ddd8d3ddf0c08U,
  0xbdd699e9bb860cf6U, 0x3d2feb80bdf87fb2U, 0xbd074d81bb8bd169U, 0xbdfc5661bcc1a62cU,
  0xbe0ec65fbe5c000bU, 0xbda041d73e378c6bU, 0x3d2060943d10dce7U, 0xbe413d60bbfd8571U,
  0xbd4f42973d07c778U, 0xbe1d80173d3fc851U, 0x3e08f6d73d7603e9U, 0x3e298d833df7dd47U,
  0xbdc05f8f3de68933U, 0xbda8f1fc3dfd5fafU, 0xbd9127c53d8d73f2U, 0xbdf59df9bd970858U,
  0xbd352b88be4ade06U, 0xbe8ee10fbe3d8ce6U, 0x3e1992e6bdf3bd25U, 0x3c73c86ebde9c06aU,
  0xbd0a57253c5fca75U, 0xbcbc8723bd6807a1U, 0xbdd0d1013d405aebU, 0xbde21e8f3d6e5af3U,
  0xbdd4c9d2bdaad3cdU, 0x3da59ab2be098277U, 0x3d911212be346ef9U, 0xbda7dc26be33b4bcU,
  0xbd12c4783e106d28U, 0xbd9642e53d5c3b50U, 0xbcf0b79dbcc05b23U, 0xbd9032efbe374cecU,
  0xbb5a8c97bcc040e4U, 0x3e647ba6bd2e261eU, 0xbdb6838ebc724321U, 0x3ca3464fbd288e25U,
  0x3e021e003ddbbf0cU, 0xbdf579d73e4a1e70U, 0x3d5ec0043b5e2277U, 0xbe1d0bd4bc2f2b76U,
  0x3bcd53dfbd8df7fcU, 0x3e2126b1be6afebaU, 0xbc724c59bd80a3efU, 0xbe46e783be12969bU,
  0xbdc97c56be55c96fU, 0xbd98a746be723295U, 0xbe9e3b24bd92346cU, 0xbd64efe93df4374eU,
  0xbd18a5ddbc992971U, 0xbdfc5a933cce9562U, 0x3e80ba65bdb9a99dU, 0x3d6569193ea40916U,
  0xbdb940893e46b7dcU, 0x3db0c8203e269373U, 0x3deb51cfbd5a4fe2U, 0x3e098a833c99936fU,
  0xbd8bacaebe77721fU, 0xbe4559403e22a6d5U, 0xbde810833dc500f1U, 0x3eb6f0383de79ec1U,
  0x3d757e42bd78e4cfU, 0x3e0cbeca3e5211e4U, 0x3e81c0d83d43bea0U, 0x3e262837be84b705U,
  0x3e06928dbea9da78U, 0xbde2bc06be738ff1U, 0x3d23b6473e4312cdU, 0xbe118fb93c8e5353U,
  0x3e342b0e3f00a9a2U, 0xbe278d6fbdc1654bU, 0x3e37f10a3dc69a3dU, 0x3c9448f8be3edd62U,
  0xbdc5399d3e0cafe8U, 0x3d3778d23cb9b0edU, 0x3e3a38f93d003085U, 0xbe369591bdebbde4U,
  0x3bbb5c62be4a1a03U, 0x3bc904c73e1894c5U, 0x3dc3aef2bdfc5fceU, 0xbde2965b3d279c60U,
  0x3d0755a0bd257c78U, 0xbe3618343e0f94afU, 0x3e8854e73d77ae00U, 0x3c15310cbd6b44d6U,
  0xbe1dc873bca6ebdfU, 0xbdc673613e033e9eU, 0xbc98cd4cbd6cbd44U, 0xbd8665c23e9a3251U,
  0xbe5e707ebe836526U, 0xbe69edf8be81c9ebU, 0x3da508e5be0903efU, 0xbe4bb5f7bd4b70f0U,
  0x3c1d86af3e95a715U, 0x3d81da16bdb30a6dU, 0x3e07c86bbd980e55U, 0xbd8e988bbe6d6adcU,
  0xbdcdd6513d351bd2U, 0xbe1ea843bc6dec4dU, 0x3ed93d81bd0b7879U, 0xbed38c07be05c569U,
  0xbdebad70be12c9d1U, 0x3d1aa8eebd16e61cU, 0xbc954d823cb06f51U, 0x3d009ca2be1710f4U,
  0xbb44c1c7bdbf25a1U, 0xbe23f036bd9848a0U, 0xbe0bd6633dfcde70U, 0xbe38a904be47770eU,
  0xbe251b8bbd499e13U, 0xbe448b613dc38d75U, 0x3cd218c83de68a64U, 0xbe888ee13d9fb613U,
  0x3e110a09be0d045dU, 0xbd9a6a443d3605eeU, 0x3b9634703cdf0febU, 0x3c01ce5ebd02aeadU,
  0x3e1674983e77edd6U, 0xbcf40f76be664c48U, 0x3dc21a743da88f04U, 0xbd656ec3bec6ffc6U,
  0x3e5076bbbc17baf6U, 0xbccae8c8bd1283ccU, 0x3f26c718bd67ff34U, 0xbe831d8e3d457da9U,
  0xbdd2d8f2be746ac0U, 0x3e28a4503cd487f2U, 0xbe07b72dbd5a8188U, 0xbc924861bdc01737U,
  0x3ccf0752bd2438d6U, 0xbe592fea3e9087b2U, 0x3d77509b3d374057U, 0xbe3c7859bdee809dU,
  0xbd9cc8a3bd8866f2U, 0x3a56d142bd43f027U, 0xbe83362ebd8e794eU, 0xbe8a1bd7be173d2bU,
  0xbdecff40bdf2245eU, 0xbdefd9093dfe9b9bU, 0xbe384007bdc1e0c3U, 0x3dd4419bbd94dea2U,
  0xbddc4e9abe12e4ceU, 0x3d219844b8d860fdU, 0x3cc8f45cbc6930baU, 0x3ddb2addbe8829beU,
  0xbd0f9d1cbea8a399U, 0xbc547cc73e1b25adU, 0xbdeef7c03e2f8aaaU, 0xbdfb89283e21841dU,
  0xbe511fca3d791853U, 0x3dcc4c233d132586U, 0xbdd47f74bd744ad7U, 0xbe2b2122bea9f17fU,
  0xbdbe04ffbde14210U, 0xbdc7a95bbc122ffdU, 0xbcfe1624bd2e62efU, 0xbe5855af3e4af19aU,
  0xbdac81ea3d9b2f15U, 0xbdb8a58f3d230418U, 0xbe65c1133d05150aU, 0xbe567bcfbe8923d2U,
  0xbdf6e92d3e278de8U, 0xbc95a87b3e6b6503U, 0x3e40a8b6bd6b0674U, 0xbd95e1013d9d4e5fU,
  0x3e3ca8ab3d3da123U, 0xbd46a8bbbde745ddU, 0xbc87be863d149ef2U, 0x3d17eb013df50e31U,
  0x3d8590453e2f57bdU, 0xbeba2b79bea54994U, 0xbdd679f8bd49e066U, 0xbe351136bdba04e5U,
  0xbd02d92fbd3cd624U, 0xbe282c70be11a7baU, 0xbe2f66e13d2c7c0fU, 0xbe920c523e32b8a1U,
  0xbd44d4983c88cef3U, 0xbe3b6ccfbdab7f2aU, 0xbe32b1eb3d333595U, 0x3b956b163d00c890U,
  0x3d6fe02c3d8d418cU, 0xbe22d9d7be064a38U, 0xbde412943dd4a64dU, 0xbe604a7a3c0ad9ebU,
  0xbda6bdd6bccd0cf4U, 0xbcbcf30c3e40c614U, 0x3e069c8ebd3c4ccdU, 0xbe9989193da631d7U,
  0x3dde983bbe0a1e74U, 0x3d65d8ab3dbd677dU, 0xbcdc312f3a8def87U, 0x3d874a873d30c03aU,
  0xbcb63d523dbe29d0U, 0x3ea700cb3d4d0f6eU, 0x3d3537793c9edf9dU, 0xbe28257fbe2eef9aU,
  0x3dee87d7be57e0feU, 0x3d76e979be27d103U, 0xbd23cf153e115297U, 0x3e727dbfbcc28d82U,
  0x3dbceaf53e2ad5f0U, 0x3e5134b1bdb6f24aU, 0x3e9f62e9bdf43f6cU, 0xbe01feb7be96cc28U,
  0x3d024d00be869542U, 0x3dc67836bd2b785aU, 0xbde4a4d43d2c9100U, 0xbd8d243c3d308d58U,
  0x3ca63820bc6917a3U, 0xbef8e2a7bd3917abU, 0xbe2e8ab73d6f9712U, 0x3e1803c53dd044faU,
  0xbd98ed00bd66e118U, 0xbe6226d83de373c8U, 0xbe249faebd40f2c0U, 0xbe24377abde41e62U,
  0x3dd5443bbe511f16U, 0x3c895a103ef20a83U, 0xbe723a2abcf96fc0U, 0x3e86984dbd5a57afU,
  0xbe481a3dbdbc9fccU, 0xba2765603def57ceU, 0xbdd3ae573cd10961U, 0x3d512fcabddca8afU,
  0xbb85c163bd9a6a12U, 0xbd2b7ff53e7b7a91U, 0xbdc0ce133e7bbe38U, 0xbdd3dfa3be2d7062U,
  0xbe57885c3d34aa5eU, 0x3d9debdbbe8d2235U, 0xbdb23b60bcf27c32U, 0xbdb9f4c8be23f315U,
  0xbd7a182cbe42a59bU, 0xbe19d8603e5a551fU, 0x3c8c5b3bbeb87ad6U, 0x3cdea909bddf9db3U,
  0xbe174732bdd760bfU, 0xbd59a8f33dce9f37U, 0x3d5f204f3db1e988U, 0x3dca50f63db85c92U,
  0x3d9e09a5bd16d806U, 0xbdb137bf3ec03342U, 0x3da8564f3b0105b5U, 0x3ec22d2b3d8d9d47U,
  0xbd7dec9a3db04b11U, 0xbbe23fcb3e453140U, 0x3da7fd10bb210e4fU, 0xbd3f859e3cf05031U,
  0xbd10cafc3e1c1761U, 0xbe1477833e15942fU, 0x3d602afebd8f82f4U, 0x3e1a87d1bd00f4d4U,
  0x3db73c0e3e317f9aU, 0xbe1a7adbbe23abd6U, 0x3d82cdc63e056312U, 0xbe660b843e410003U,
  0xbd8addd53dd5aaefU, 0x3df988993e6bb48aU, 0xbe0b67003d900364U, 0xbcb2d7443d0f47c1U,
  0x3d4d5d3a3cc9befaU, 0xbd069063bdcb4141U, 0xbda390113d658c2bU, 0xbd2bfd67bddc8b22U,
  0xbd86f8d93e2a6444U, 0x3de9bd4f3e3ce96aU, 0xbe5eb57cbd8897a4U, 0x3d70f6f13ea37338U,
  0x3e2ac97e3d35d72dU, 0x3c6756d33dd08a09U, 0xbe548220bb9cc9b1U, 0x3d3cf8f43de899c2U,
  0xbcdd5b3fbddad70bU, 0xbe90879dbd5ceb1fU, 0xbebc77b73c7b3750U, 0x3e594c7f3d7efb04U,
  0x3e1af2f6bde0ae98U, 0xbda05c92bd04d841U, 0xbc9e22333ddcb5edU, 0x3df8b48c3d094ae7U,
  0x3dbc5afcbc9d3be6U, 0xbc08160a3ec7d22aU, 0xbe0e01f9be524d1aU, 0x3ea56e1b3e830351U,
  0x3d4bb8ca3dd038ceU, 0xbd93acfe3db76a2dU, 0x3d89c0763d25c8e6U, 0xbe50b4f43e310647U,
  0x3dc0fb30bbdaa17bU, 0xbe28b5b23e0861a3U, 0x3e3015dc3de775cfU, 0x3eab3ce63e258953U,
  0x3d7c0b8d3e6df2c6U, 0xbe403b1f3de4168eU, 0x3e69e16e3ce8c38dU, 0xbdb874d43e834ea9U,
  0xbe06a794be91bcc9U, 0xbd868aa33ac5d765U, 0x3e6bedb1be282b2eU, 0x3e373685bdb4ccd3U,
  0xb95114d33e46d222U, 0xbe670e0c3d3b2f07U, 0x3e1607893e05b13aU, 0xbe34e5dfbe18fae2U,
  0x3de269da3dca27ebU, 0xbe10894fbd84bbaeU, 0x3d4db45bbce46f04U, 0xbcb65797be406613U,
  0x3e1975a23ccb4449U, 0xbce01728be3f4035U, 0xbd8fcd483db9ba78U, 0xbe5b58233d159854U,
  0xbd95259bbba1ca80U, 0xbe5575923c4ddc89U, 0x3e9fd9ac3df36a35U, 0x3c673ef63e78cccfU,
  0x3dcac57b3d9ef41dU, 0xbd0a84d13d0ab43dU, 0xbde8b0cb3d50e303U, 0xbe7e396f3e4708a0U,
  0x3d3a7a74bd282ab2U, 0xbdc2a0923c866827U, 0x3dab6cb5bd41cfd4U, 0x3c22287f3e810d32U,
  0xbd8fd1a03ddee26cU, 0xbddb22f8be330c44U, 0x3e3bb93b3d151ad5U, 0xbe5d45083e51695cU,
  0xbc59133b3bd50db6U, 0x3da5d2ddbe1d0645U, 0x3cfbe83cbde18100U, 0xbd57f47e3eed0fb4U,
  0x3e0fd9443be90883U, 0xbd7220ed3c3742cdU, 0xbe1d6b6fbd62b3e8U, 0x3e0a72493dab90bdU,
  0x3dca08323d619712U, 0xbde7660d3d8d3207U, 0x3e256afebd8d1b46U, 0xbd83a1023e91f253U,
  0x3df54ba8be28c776U, 0xbc9716a23e0e0ff4U, 0xbef8ce22bd0e2558U, 0x3dc93b453c97c804U,
  0xbc5aeedfbd03f371U, 0xbe5705d0bde3d1ebU, 0xbd1faf4abddfe093U, 0x3ddca96ebda1947cU,
  0xbd2b2a243cdeba35U, 0xbb46096bbdb08dbfU, 0xbe3f7325bd86b4deU, 0xbd8eb716bdf5e134U,
  0xbce5fcff3c890f17U, 0xbd90fa4b3dfc0432U, 0x3c862e903dcc67dbU, 0x3d9315cf3de1d705U,
  0xbe2293abbd60ed78U, 0xbe03267a3cc2f97fU, 0xbd26bb7ebd74a35cU, 0xbdc62e1abd24ff00U,
  0x3d23ee80bd8cbf76U, 0x3d8253073d92e3caU, 0x3ddc8f4ebdbee436U, 0xbdb671f5bdd5f15bU,
  0x3d32de4ebda77c1dU, 0x3c680b123d066cf6U, 0x3d2e44d7bcec0bbfU, 0xbd91bb6cbd8be0dfU,
  0x3d023bbfbdc877e3U, 0x3ac500eebe19b1b8U, 0xbdfb76993dc0e8c3U, 0xbdc5fe923d05674cU,
  0xbe0a719d3ccbb5d0U, 0xbd05a99a3d24d924U, 0xbdb4f436bd6e469fU, 0xbd29599abd18208dU,
  0xbe004963bd44c796U, 0xbdcb2d52bd21816fU, 0x3cccb334bcb4540aU, 0x3d25e2b9bd9bf5a3U,
  0x3d95b370bdc1b4cfU, 0x3dab40e93dc447c9U, 0x3b9064d9bd59663fU, 0xbdb4c2723e101c3aU,
  0xbdbd0a4fbd771e25U, 0x3d3539073c9efd40U, 0xbdc2ed4ebbe6dfdeU, 0xbd111ce33d4fa079U,
  0xbdb33206bd3d3becU, 0xbcd7ecc33c2cf3f1U, 0xbe00d795bd01d1c8U, 0xbe371f77bd85e1b2U,
  0x3d8af930be1f08f0U, 0xbd47fff4bdd3aea7U, 0x3bc4a142bd8339e3U, 0xbdc6aed4bcbe8596U,
  0xbe247e003c9dae98U, 0xbcf85f31be00406cU, 0xbdaa34403c93651eU, 0x3cd3a4923c40dacaU,
  0xbcfec3553c703f07U, 0xbd31260ebdd82412U, 0x3d8620c6bd57d5b7U, 0xbe01b23c3acd7948U,
  0xbe023189be40dc61U, 0xbda1260abde04542U, 0x3d0f21f03d935473U, 0xbd5a69953d0a4336U,
  0x3d1e92a3be1c7736U, 0x3da30739be1021e6U, 0xbddf08463c3175cdU, 0xbdd18379bde21534U,
  0x3d13f0e43c3f5978U, 0xbd920fc4bd9c7c45U, 0x3b96624f3c09f116U, 0x3d96c93dbd2f61cdU,
  0x3c41acffbd0a2d5bU, 0x3dab59143e036e90U, 0x3cb7505ebdf6c4ffU, 0xbdecfdad3d9dd01cU,
  0xbd44b07d3b5498a6U, 0x3d528dafbdf86db6U, 0xbdb7eb093c27044fU, 0x3c335d1abde2ebe6U,
  0xbd5918703d9b5260U, 0x3e240007beefef91U, 0x3e8f48383d5d9364U, 0xbd59bd59bd9f8fd7U,
  0xbdb1355e3de8e609U, 0xbe5ac2c0be98f1a8U, 0x3e98bb6d3d9e3a82U, 0x3e66593abd5cf6d9U,
  0x3d6f07d2bc0f9b75U, 0x3d582fe8bded5cbfU, 0x3c2dba2f3d9a4fe0U, 0x3de8c1efbe520fbfU,
  0x3dc6d5c4bd3752f3U, 0x3d4b71c43d97fe7cU, 0x3e6fb12bbd26099eU, 0x3e8b20aabe0c9e08U,
  0x3c290680bdd40f31U, 0xbd31cd713de187f9U, 0x3da4c4fbbd02a585U, 0x3dce56eebe5c70ddU,
  0x3de6f29dbdf72bbdU, 0x3ec7023bbdb59b3aU, 0x3c21ce47bcb7f064U, 0x3de1c0d0be90f6dcU,
  0xbde199503bbbec12U, 0xbe8c7426be936a3bU, 0x3e5e6b823d0f774cU, 0x3b6b827d3d9efc6bU,
  0xbe74b6e6bdf04bbfU, 0xbf0bc8d2be51e828U, 0x3d0c36113cd66a9bU, 0xbdacb6f23d8a4b28U,
  0x3e19bc33bdd78599U, 0xb8ef44a1bcf1f397U, 0xbe11b2a9bc3ddabcU, 0x3dd04a0c3d9eb4c6U,
  0xbe9ce66ebe44b53aU, 0xbeb3e92b3cee0c13U, 0x3e59395bbbcb01afU, 0x3de0c6fe3e10360aU,
  0xbe51ca51bd5d9fa8U, 0xbd55f63c3e100f2eU, 0xbed1d4f7be055ddaU, 0xbdfae0893e728dd8U,
  0x3b3f5f62bd178f77U, 0xbe04e783bd13793fU, 0xbdd677fd3bf457e2U, 0x3d56e66abe2ab89eU,
  0xbe2209ba3ccf9e8cU, 0xbba21449bd6f2ba7U, 0x3e0585943d8ba269U, 0x3e748a67bdc631faU,
  0xbddb6f9abdc7dbbdU, 0xbd699e2e3c1779fbU, 0xbe133eb2bdb6de5bU, 0xbd8ebd663d8fddd9U,
  0xbd2592723b97e76cU, 0xbe6f01583d110a77U, 0xbe6d94b4be110e02U, 0x3e87cafabe007ff3U,
  0xbe88b47dbdbb5d77U, 0xbea2af453e426250U, 0xbb4eb72dbcca1ea5U, 0xbdcf1fa73dee6aa3U,
  0x3e008a50bdac5466U, 0xbe18c6833dc91cefU, 0xbe8232cbbccd8bfeU, 0x3e51b0cd3ddef036U,
  0xbdef624a3b03c434U, 0xbdd799113ded9e2fU, 0xbd15e9d13de2b240U, 0xbcde91553d638e84U,
  0x3df780dcbd79615aU, 0x3d903def3e0408faU, 0xbe24886d3d109dc5U, 0xbe9cce77bd79419aU,
  0x3d69c0903eaf7778U, 0x3e2d1c043d06d650U, 0xbe74b7f63d92936fU, 0xbd29b9c0be1662d8U,
  0xbc86a031be13048cU, 0xbe5f04313e5e64daU, 0xbe0f00a63df8a154U, 0x3db81e8dbe17797cU,
  0xbd08ffe23d7483ebU, 0x3e5a32313edf6a77U, 0xbdc600d43dd7e064U, 0x3df7b676becb9413U,
  0x3d38b80abe7bd7a1U, 0xbccae0fbbc18b3c9U, 0xbe9378ddbe1fc319U, 0x3d10ee0bbe1ce3e6U,
  0xbe77dd77be10d646U, 0xbdb6a4a6bdd5e766U, 0x3e2ef4883c9a22acU, 0x3db061b7bea31956U,
  0xbda43b4abd91005aU, 0xbdf9f4f8be6b0423U, 0x3e782bcd3e2787d6U, 0xbdd9ef76bf15c89eU,
  0xbd564fe3bd3b9c92U, 0xbdb05a1cbe2f391bU, 0x3de4f0cbbd9b16caU, 0x3ca7bb67bb5978e7U,
  0x3bc04dba3e61824aU, 0xbd6ffbc73dff68e6U, 0x3e74f996be4144c1U, 0x3e8b9c14bd9001a9U,
  0xbe7df501be44e8b5U, 0xbd9a71fdbe1efa92U, 0x3e05a730bdcbecd6U, 0xbe08cfb73e6e65f7U,
  0xbadb5a3b3e15c4f5U, 0xbdc91d283ed9d0e0U, 0xbea8ed55be5a504cU, 0xbd97c042bde1bb99U,
  0x3e25c40a3ead0e76U, 0x3e2b44e73d216b78U, 0x3e0d6692bd25c931U, 0xbe373384bd9bd0ecU,
  0xbc325e6bbddffc3dU, 0x3cc496d6be63d1a8U, 0x3e1c17793dc3ad8fU, 0x3cb14e14bdd0fb1bU,
  0xbdceba18be1ff234U, 0xbd83cd75bdeb739cU, 0x3dfff665be01080aU, 0x3d35a6613c86ed9fU,
  0x3db477d2bd98f5bdU, 0x3cba4a8ebed854a0U, 0x3def8f8f3d7d67a3U, 0xbe73fef63e0cad25U,
  0x3d611df6bd5430d7U, 0xbdeb031ebdda2281U, 0xbd0596a4bd8071a2U, 0xbe93ed163eab7b7bU,
  0xbd1c751ebc17a770U, 0x3bce259cbcdf3268U, 0xbe40d1343de0165cU, 0xbea86c52bdf88754U,
  0x3e0209643c328dfaU, 0x3e6f63753e7dec04U, 0xbeb8003ebdb71f34U, 0x3e0e92cf3b977ff9U,
  0xbe1d15703d4d8c4bU, 0x3c899ee33d3a79a0U, 0xbbf4a98abd981437U, 0xbd81225cbd055872U,
  0xbd03dccebdd4ef29U, 0x3cccb6f0bd3d4775U, 0xbcf4040c3ca5c2a1U, 0xbd817e21bd50d5dfU,
  0x3cfaac3e3c101c92U, 0xbd943dea3cdce91aU, 0xbd9f6bb1bd29d50fU, 0x3c898afabd7cab0aU,
  0xbbbe6544bde00b1dU, 0x3cbedaa5bd145153U, 0xbd945b14be2e873aU, 0xbb163c2ebc0a7e61U,
  0x3d88654fbce4d86aU, 0x3c23d51f3d843074U, 0xbdf4792ebb6c3cebU, 0x3c84f352bd793ae5U,
  0xbda376bc3caa6213U, 0xbcdf4b25bd12fab8U, 0xbe1f4dfb3dec2dddU, 0x3d87e596bd68a2e8U,
  0x3c1a308fbd8ae814U, 0x3dfeb53dbc875418U, 0x3d5c3f5a3ca9905dU, 0xbd50d8283ddab6a2U,
  0x3d0c02d63ce4778eU, 0xbd86d8ee3d186a02U, 0x3d95a303bd9d7097U, 0xbdb1924e3def0f74U,
  0x3d3e254fbd6beae2U, 0xbc2dd5acbbffbbb3U, 0xbd2055b1bb57d2bfU, 0xbcec5697bdb20a99U,
  0xbb9efcadbcb53fceU, 0xbcb5fe2a3c8b0177U, 0xbc19f5e3bc81aaccU, 0xbc41f5d9bd950a6dU,
  0xbd9e2827bc293878U, 0x3d47e3b53cb62736U, 0x3cc71c9d3cddb5f1U, 0x3d66bb213dce0b4fU,
  0xbd41f1413d9aff11U, 0xbc92d981bdc5c6cfU, 0x3c2f0dbe3aa424fbU, 0x3c8607e5bdf0238eU,
  0xbd9b3540bd0c1a05U, 0x3d54bd0dbd9e4184U, 0x3d258fe83ca12be6U, 0x3d977b51bd868c59U,
  0x3d8516bfbdd00533U, 0xbd668925bcced45cU, 0x3cb26fbfbd279e33U, 0x3b44fffbbb681494U,
  0x3d4ec215bd342f51U, 0x3b9220ec3dcf355cU, 0xbca584383c2a9ae3U, 0xbdc5eb273d867585U,
  0xbd4667f63cd035c7U, 0x3d4bdbd43d01ed7aU, 0xba95a3debd8fa13dU, 0x3cfabf93bdf03b0eU,
  0x3d1a79423d9e4a63U, 0xbdd493a0bcdaa3b7U, 0x3cb9cc3f3a0ac044U, 0xbd754dcdbd37a7c2U,
  0xbd90316a3d8543f3U, 0xbdaebcdebc3ffd2eU, 0xbe2827473d64851bU, 0xbc3ef48a3d15294fU,
  0x3c62c8c73a5d1f14U, 0xb9180ba6bc49ae7aU, 0x3d4775d43d89f82eU, 0x3dcfa3f23db30965U,
  0x3c6ba3443c947276U, 0xbc9a1e633dcad62fU, 0xbc5e4aa23d7e46a1U, 0xbdbd96d1bd1045d6U,
  0xbcc8caa6bc3e41faU, 0xbd69d6d43d54419dU, 0x3d78d0273d834c48U, 0x3ccdb599bd477053U,
  0xbdbbc386bc8b02c5U, 0x3ac6ea993d80bdcdU, 0xbe0d9ebbbd69a700U, 0xbdbf3bddbbba5291U,
  0xbd9a7a553d0803f2U, 0xbd9f8fdbbd878dbaU, 0xbcb1a565bc5ce9e5U, 0x3c7efc36bd3b70afU,
  0xbd1e1e7ebd5190cfU, 0x3d56d7df3c9594bbU, 0x3d4685b53d94501dU, 0xbd026ec0bd496038U,
  0xbd7b10a1be1dc2a4U, 0xbce8d1e6bd1af4d8U, 0xbd9409bbbd969ad6U, 0x3d6802cdbd346353U,
  0xbdcca076bc17d2b5U, 0x3d0fafd2bda82241U, 0xbc90ccc93c8108ceU, 0xbd6f15d83d807d41U,
  0xbdcbfab5bc085cbaU, 0x3c8c83f1bd89fcb9U, 0xbbc9411b3c7e1788U, 0x3c7707793d09b5f3U,
  0x3a6b8ad23d098d42U, 0x3d91486f3c223edbU, 0xbccc2ca2bd6f50f1U, 0xbddffe67bca0d273U,
  0x3d801a95bdcdf602U, 0x3c08271bbe1ddc69U, 0xbd2f1334bd792fa2U, 0xbd4eb3143d920911U,
  0x3d5dabda3dfc8743U, 0x3d53cd2dbd9a4929U, 0xbd0854353cd7d2e6U, 0xbd0671be3cb9907aU,
  0xbb83e437bd846855U, 0xbd87fc7f3d9c3539U, 0xbd766b7abd94f7e6U, 0x3cf1d359bd3a138cU,
  0xbba52858bc7b3e09U, 0xbd2e542b3dbdbe1dU, 0x3d7b266dbccad2faU, 0x3d216582be1c6b1fU,
  0xbd832196bd916ce0U, 0xbbf600a9bbb2ed15U, 0xbd86cdb2bda2c9d8U, 0x3ca6c79b3da4a97bU,
  0xbe009bc93d174cadU, 0xbd707b423b35fe86U, 0xbe0507303cfc3cb0U, 0x3d72075ebcb0eae6U,
  0xbd44c2ac3d2d295bU, 0xbd6533073cae214bU, 0xbd9b25d0bd9c1fdbU, 0xbc533c9e3ca06f59U,
  0xbd86e89b3cb33062U, 0xbd8a2130bc1fa878U, 0x3ccbac893dd9ad52U, 0xbdaa26f93cc16c24U,
  0xbd1bd176bc790f65U, 0x3cc3dcd43e0bec71U, 0x3b976f20bccd4d6eU, 0xbd6415a2bc85c5aaU,
  0xbcfeb9b33c970030U, 0x3ca744e63d72917cU, 0xbe2591febc16fabcU, 0xbd822458bcf2ea20U,
  0xbce51c5b3c14988bU, 0x3d63c073bda46abcU, 0xbbac2488bd682bc1U, 0xbca396d1bd809303U,
  0xbd24701bbd9ca759U, 0x3c0d32d33d0a657fU, 0xbc5a76bfbdc8028dU, 0x3da6195e3d30fea9U,
  0xbd5eeb3cbe7a506eU, 0xbe57bcd33cde8d8cU, 0xbe164972bd6e33dbU, 0x3d387de3be92f10dU,
  0xbe108e61bde4029bU, 0xbb332ab3bd06cf42U, 0xbca92f2a3d11a6d6U, 0xbccdf6b5bd7ebc3bU,
  0x3da7d182be314690U, 0xbe1c2921bb37408eU, 0xbd5881d73d8b64cdU, 0xbc495638bdadd0d5U,
  0xbe8cea29be8c48bfU, 0x3e34ff123d246b10U, 0xbc25f0be3e2bf256U, 0xbe786ef3be1b0930U,
  0xbc9c6292bdb73d0fU, 0xbeb0cbfc3e1a8264U, 0x3d3d14473ce51c8cU, 0xbc8de191be8fc6cdU,
  0xbe1853c1bdf4897cU, 0x3d1176473d30bd81U, 0x3d0e37193e2e8e93U, 0x3d97bf6ebd93bac8U,
  0xbd5f1146be93413bU, 0xbdfa8af8bc7255b3U, 0x3c9c7381bd9185a5U, 0x3d57f6033d04bf59U,
  0xbed0f61fbd32a2e3U, 0x3e09f2ab3da7afcbU, 0xbcae5c11bc335eb6U, 0xbe4ce6d0be0b0913U,
  0x3dc31aeebdddf436U, 0xbe265fd83e433550U, 0x3d8806a4be01fedaU, 0x3d228921bdeb6426U,
  0xbe92de3cbc94449dU, 0xbe06e4cb3b83e560U, 0xbc01f9603e2d57b7U, 0x3d72b1373d4aa8f0U,
  0x3d3e65ff3d85db52U, 0xbe005242bd8459d8U, 0x3d34c877bd7666d9U, 0x3e591a2dbdf93410U,
  0xbe95066c3e2e019cU, 0x3d8cf6c13d02d07bU, 0x3dbfa8d9bd96091eU, 0x3dcdbc68bdd84a9bU,
  0x3bd606f7bd6fbe73U, 0xbd82ad20be2c4858U, 0xbe5bba07be0c69c0U, 0xbce79a5ebe90bee4U,
  0x3ddd220ebccbaa28U, 0xbcd1f55c3e0435cdU, 0x3bc2c5f7bdf8bc73U, 0x3d3c75a3bd192efaU,
  0xbd5054f2be9bc9abU, 0xbb583d3fbe870c31U, 0xbd8b0a45bd4ee59fU, 0xbd91975c3d406515U,
  0xbe9fbc2a3c07644cU, 0x3dc7765fbd9093bdU, 0xbdb99797bcb6c373U, 0x3cb1f1d03da6d3b6U,
  0xbe29ffe9be4f83e7U, 0x3db396b6bcc3fbb9U, 0x3d53cc093ba11ebcU, 0xbc6e8c35bd9181edU,
  0xbe41a1463dd9e386U, 0x3d9c50ef3c25335fU, 0xbbdf2a403d1eaf34U, 0xbd13f8c8bc851933U,
  0xbdbeb460be7a12b5U, 0x3d744189bef36daaU, 0x3d370ba53d06959aU, 0xbbe25fc53d42895bU,
  0xbe2dcf52bde3f3f5U, 0xbd94270a3d83f55fU, 0x3dad874cbdaa55d1U, 0xbe0c8931bdd603e0U,
  0xbe15037d3bd3f50fU, 0xbd9dea083e736d8dU, 0x3e6a6b2abdef361fU, 0xbd7973f6bee3d332U,
  0xbe2635c53dbe17a7U, 0xbcfc5409bd8ab1ceU, 0x3e14b8ef3dde8e07U, 0xba6543aebd88acbfU,
  0xbcd547de3e533f2dU, 0xbc59b90cbdeab425U, 0xbd9511203d3524afU, 0xbceb359a3d630abaU,
  0xbe2b3585bd8fde6dU, 0xbe3a978a3d5b4eccU, 0x3d847ae43bd3653bU, 0xbee33ab1be95908cU,
  0xbd85ea7dbe82d3b8U, 0x3e0e04eabd07808bU, 0xbe05388a3dbd0b7cU, 0x3d2dcea9be6e47c9U,
  0x3e5c72bcbe2e3125U, 0xbe5213453da93328U, 0xbdc6f08fbe2856ccU, 0xbd18caccbc19987aU,
  0x3e70e49abbd8cca9U, 0x3e09bf85be4d7d25U, 0xbd4f86443c819a07U, 0xbe5d0b42bc41e3b7U,
  0x3e5685333e5a2374U, 0xbe10d1123d23b4e1U, 0xbd37c9f2be2fc37cU, 0x3e805f05be1023e4U,
  0x3d11cf37bd7f69f5U, 0x3e47790bbe2aca93U, 0x3cb4a728bbdef716U, 0x3b6eefeabee9861aU,
  0xbccf5b8bbe5365f1U, 0xbecfac1f3cc3677fU, 0x3d4302aa3e196b86U, 0x3d5d183d3c89859fU,
  0x3e4dc12ebc6f1b2dU, 0xbd083954be1f33d4U, 0xbc9f43dd3d9b2d91U, 0xbdf196ecbd9f9f41U,
  0x3d6d109dbd216cbbU, 0xbda00f043dda8db6U, 0xbce4c282be304e24U, 0x3e5ceed8bb70475aU,
  0xbd0304ddbe85831fU, 0x3d2d0e0ebd2e3259U, 0x3e0f12123c9d0fe4U, 0xbc9d84ed3ccabab3U,
  0xbb5c7a5ebd8c9700U, 0xbe6200d7bce6d1c4U, 0xbdea13b43e207920U, 0x3c901bf3bd0e5a9aU,
  0xbda171fb3dcb044fU, 0x3ca5a65fbd5dcf62U, 0x3d31ccb43d7c87c3U, 0x3cf2ae34bccd7201U,
  0x3e1de7c3bda86e00U, 0xbe26c18ebda7aa32U, 0x3d153fd5be9cee11U, 0xbe486beabd129a03U,
  0xbdb058803baa1b5eU, 0x3ce23c82be31d9b5U, 0x3e70fa84bd82640cU, 0x3b84cf40be0ffefcU,
  0xbd323798be840b97U, 0xbdb5140d3d284772U, 0x3dd85f4c3da51c57U, 0xbd695d633cf738caU,
  0x3c24c5a6bda6187eU, 0xbda0b89f3c83c063U, 0x3c6f872c3ca4efe6U, 0xbbd862b03c57bb11U,
  0x3c8c5656be4b677bU, 0xbe69dbf8bea23e32U, 0xbb936a87be01800cU, 0x3d54785bbdc98e7dU,
  0xbdaa8d9c3d21ade9U, 0x3e29232abde66bf7U, 0x3e0405b4bd1b5e9cU, 0x3d6584c4bd4ad9ddU,
  0x3d519195be9e7122U, 0xbd8a4292bd082759U, 0x3d9ae6edbd9b5410U, 0x3d35cbfabd3bc689U,
  0xbd8b1f41bdf9ca63U, 0xbe9d400f3d258374U, 0xbd7c6c76bbf264f3U, 0xbd473c9c3d2d4482U,
  0xbe8b412f3d95ae61U, 0xbdcb243cbda9068cU, 0x3cb3e291bcebf138U, 0xbe2ff979be0b69ccU,
  0xbcd2e2893d8647d8U, 0x3d8c4fbfbda77f4cU, 0xbc8dbc04bd094b26U, 0x3d92b00fbd8b0d9fU,
  0xbcde6efbbeb3ec0cU, 0xbe055d913ce307feU, 0xbdb896bb3c02cd44U, 0xbd0405a33da916d8U,
  0xbc4f8961be95fd66U, 0xbe6f896b3d7d81aaU, 0x3d79fbd83cb5a0ecU, 0xb9c39e243d08dafaU,
  0x3d5eb347bcb72d1dU, 0xbe3bca6ebd3fed31U, 0x3d0d5ba83d680e39U, 0xbe07c158bdb373c8U,
  0x3d90626d3b87a851U, 0x3da0401fbc9d1acfU, 0x3e2e7d03bd4672f5U, 0x3d089f29be66ffddU,
  0xbe21677dbde79a87U, 0xbe150240bbc387beU, 0x3ded5f92bd5ba8dbU, 0x3d204ac8bd761f0fU,
  0xbdf7d487be10e9f7U, 0xbe8288953d45f5dbU, 0x3c2d06d3bcef821dU, 0xbe1c912a3c537285U,
  0xbd5f5115be3b8c6dU, 0xbe4df9a6bd26695eU, 0x3d381ba33da8f17eU, 0xbd67cc9abd6b6e5dU,
  0x3d213652bda1e0a4U, 0x3e70fddfbe04a453U, 0x3d0ea3463bec4d22U, 0xbd437863bd9b5888U,
  0xbdde59ddbe90f227U, 0x3d2dffa8bd46017bU, 0xbe409e1e3d94a2a3U, 0x3d6082bc3d85c52dU,
  0xbc76626c3ca50f60U, 0xbe5b8238bd0c8c26U, 0xbcde5105bd87688bU, 0xbe82960d3d932d7dU,
  0xbe896435bd352d9aU, 0xbd60dba1be4cebe3U, 0xbd8e6a50bd4c9a37U, 0xbe34c90e3e012f74U,
  0xba01b6073d382c27U, 0x3e1ec7f3bd130774U, 0xbdacbafa3d78f28bU, 0xbd987aef3de0f7acU,
  0xbde69ef0be0868dfU, 0xbcff885f3d357030U, 0xbda334aa3e3b872cU, 0xbc855914bda050ccU,
  0x3b012f64be8540c5U, 0xbe3b5a6b3c1c90bcU, 0xbac743ffbd368db1U, 0x3e61a9723d0412a6U,
  0xbdadb6d9bd2536d5U, 0x3e4e8889bee49a79U, 0x3d3ebab0bdb37dd1U, 0xbd1b1cc73c442762U,
  0xbd4ca5793a3f4fa8U, 0x3e33019a3daa0772U, 0xbcf75feabccc6b29U, 0xbdaaefefbaa54c06U,
  0x3c2f9228be397ec1U, 0x3e6178de3e122ba7U, 0x3d63b7563d3c55cdU, 0xbbc9d5893db3b6deU,
  0x3e086010bd80688bU, 0xbeb787f7bdbdfe89U, 0x3d459118bd2328bbU, 0x3db68ff73c9782c4U,
  0xbe9939f7be126c96U, 0x3e0981ff3b79b8b9U, 0xbd6bd75cbdb7fafdU, 0x3dd1bc6cbdf6971dU,
  0xbe7e617b3dc52459U, 0x3e83666d3d0320b5U, 0xbd02d7fd3d8f23adU, 0x3c960cf43e6d9e7dU,
  0xbe099e28be76cd20U, 0x3e8dc3803cbd0c54U, 0xbe5134ac3e43ba7aU, 0xbdfd670a3b9ae5c4U,
  0x3e7487f1bcfe3b1eU, 0xbe62127c3d16c3aeU, 0x3d886a7cbb5e5ce8U, 0x3dcdc9d8bd888084U,
  0xbe105bcbbdc3eedfU, 0x3e8e148cbdde167eU, 0xbbadb8f8be031fbfU, 0x3df3e89abdcb9bd8U,
  0xbeaa1d7c3d9a0b2cU, 0xbc99f6ad3da0ca94U, 0xbe04e7c73c6596faU, 0xbcfe7bc6bd585b90U,
  0xbd927e05be45c0d4U, 0x3d922548b9b12ef5U, 0xbd824a343e4c40d9U, 0xbd0e3415bd083e93U,
  0xbc5f5555be123ed9U, 0xbe05c959bd1df75bU, 0x3cfdeee33d9313c1U, 0x3cb1f639bdccde31U,
  0xbc5c415fbd9e0435U, 0x3e5dbc4dbda07d47U, 0xbc0d4877baf8f476U, 0x3de2773dbdfe0e37U,
  0x3d7125a13d3fcb27U, 0xbd9135d0bdf84acbU, 0x3c3bb5b63dbe087eU, 0x3c8916f5bd68835bU,
  0xbddcf150bd088bb8U, 0xbcc198ae3d9e4af5U, 0xbd95b99fbd423067U, 0xbc2d31413d916969U,
  0xbd59368b3cf89bbcU, 0xbde5fbe9bd8c3969U, 0x3d2559be3d9a4463U, 0x3b1721f93cfd525dU,
  0xbd8249aa3cfae898U, 0xbd968c673c0db43aU, 0xbd80de903cf5241fU, 0x3c9daf5d3d828852U,
  0xbc0055e2bd337459U, 0xbdde4b76bc85ab2eU, 0x3d37d1973dabfa72U, 0x3da484da3d7b1255U,
  0xbcd2fe23bd75cd1dU, 0xbdc2ae11bd8ac8caU, 0xbd9c39e93c9d4447U, 0xbdacc9c03b67ee99U,
  0xbd5464cd3cf23d83U, 0xbdd7daf7bd35107bU, 0xbd9a26babda04ee3U, 0xbd0a29c2bd1b7441U,
  0x3cc4cc52bda20c24U, 0xbd318e9e3d1ca5ceU, 0x3c14e32dbd6b2f48U, 0x3c4ace55bd32c224U,
  0x3cee1fb5bd59caa6U, 0xbd9c7136bc71445fU, 0xbdae05dfbc600a92U, 0x3d9edd483b5aaf94U,
  0xbb17a0753c84ead5U, 0xbc82c9263d3526e4U, 0x3c20bc0ebc5c2dd7U, 0x3d90b793bd4d0f3fU,
  0xbd3d9b97bdb1bcbdU, 0x3c65d8c8bde68362U, 0x3d8e81cc3c119965U, 0xbdbc8d363d3eda51U,
  0xbd9f7c1fbbb8aa49U, 0xbcc830ecbd220cdfU, 0x3cacff48bd52b334U, 0x3ca0f9cabc83d754U,
  0x3b089cecbce7b2dcU, 0xbcfadb65bd69ec8fU, 0x3c4dcc0ebcebca16U, 0x3d73604e3b58117cU,
  0xbd99fbc13d53cd60U, 0xbc788b42bdb09b60U, 0xbd583032bdc06708U, 0xbd5f82cb3d6b3080U,
  0xbd8b8b923c42d648U, 0xbdf49ff53d19bf2eU, 0x3caeaac63d60bba0U, 0xbdaeff353cfec661U,
  0xbca636e4bd71e4faU, 0xbc7843e53c91a54eU, 0xbc3c5cb7bbb7e5aeU, 0xbc288d0d3be95d6cU,
  0xbc0cfa693d137721U, 0x3b5bbf4ebcdce787U, 0x3d3872743b28061bU, 0x3d7b5800bd1dc2f4U,
  0xbdd47c03bd94094dU, 0xbcbcc45c3bb20d9bU, 0xbd613aeabd664dd8U, 0xbd30add2bda9c5f6U,
  0xbde90775bcae2c59U, 0xbe0030cfbd371264U, 0xbc072ceabc0e2a0aU, 0x39a33ba5bd8e40afU,
  0xbd8e9758bd551d66U, 0x3c01b84abdcce4c3U, 0x3c85fb583c2d88a8U, 0x3d9e274e3c2dbe24U,
  0xbd62ea15be026475U, 0x3d455ad1be036840U, 0xbc839cd13d9ac311U, 0x3d84155fbdaf96e7U,
  0xbb86f97c3c8f2500U, 0x3aea16303c85c0dcU, 0xbdaf5d98bd40bdf7U, 0x3b81c7613d2658f6U,
  0xbda2d1b1bda26c7bU, 0xbd8ce5523c25303cU, 0x3d909cafbcc1a3edU, 0xbd430c63bd9ad17cU,
  0xbd8e552bbca0c592U, 0xbd53db8fbdd042daU, 0x3d96a07c3d2b7764U, 0xbc1237ebbd974e51U,
  0xbc3972b5bcdee630U, 0x3da131bdbacba05aU, 0xb8519f3e3c565208U, 0xbd5f8dedbc4339b2U,
  0xbd30affd3d00be67U, 0x3cc3c48ebd7bc894U, 0xbd80024e3c903bf7U, 0xbd44b850bce02af2U,
  0xbcd2d4383d5b974eU, 0xbd598f30bcb9e7a8U, 0xbbdb772a3d684031U, 0x3d17b9d53d6ac7a6U,
  0xbda887f5bcc57ea0U, 0xbc9610d3bd224e49U, 0xbd455c95bd335638U, 0x3ce3bd493b4e2a54U,
  0x3d244a9a3c89081fU, 0x3c7fe60a3b9216b1U, 0xbdd28d10bc0f3b81U, 0xbd7219223da7b99fU,
  0x3cbe13c1bc48ef5aU, 0x3c82bf7d3d449d70U, 0x3ca189fcbd1f1f81U, 0xbd90bc9ebd1cdbfcU,
  0xbd74def23c2bd587U, 0xbdd941f53d1d6c4dU, 0x3c1ab477bd7b4081U, 0xbcf25d96bbb254a1U,
  0xbdac90bf3d373679U, 0xbd034ceabd928e23U, 0xbd9550b2bd96122aU, 0xbda19f603de6fd09U,
  0xbd45ec75bdaebfa2U, 0xbd7858c1bca81082U, 0xbcfb099f3c879fe8U, 0x3d97e21d3ca4d696U,
  0xbc7cfa133c703613U, 0xbd9f168c3d4e0600U, 0xbcb242a5bdfc7983U, 0x3bbc5a1dbbde37e4U,
  0xbd300043bd30abfeU, 0xbde2b9a4bd0336fbU, 0xbd25ae583a00ee38U, 0xbda6ad5e3ce09057U,
  0xbb504164bd3ad157U, 0xbdd26ca83cb29f34U, 0x3b848c93bdad9502U, 0x3d5c99debcbe48ffU,
  0x3c87c4a23ccfaf77U, 0x3cce459ebd206cd1U, 0xbe2f8ff5bdc8955aU, 0xbd13456b3dd232cdU,
  0x3d14591ebd46eca6U, 0x3e41a774bc8db7e5U, 0xbe947043be43ce9bU, 0xbdb88e413d7947f3U,
  0xbd15d5cfbe72f838U, 0xbe06ba7abe9a3fd7U, 0x3d7448123d345cceU, 0x3e1f8a723cf45fb8U,
  0xbd82e4dfbe1b8cd3U, 0xbdfd7e453d19770dU, 0x3c9ab345be32c7daU, 0xbd587818be5a0443U,
  0x3c578085bd9da345U, 0xbe36954fbcc328d5U, 0xbe0da6853c5c019cU, 0x3d2c6ed33db75798U,
  0xbdd702bbbe0f96f4U, 0x3e990f9a3ccfd705U, 0xbe0b91b1bd51965eU, 0x3d7d36383d048a8bU,
  0xbd14b82dbeda0d18U, 0xbc87a8ebbe2b5741U, 0x3dddbd0bbd855a90U, 0x3dc74f53bd3871b7U,
  0x3c8f886abd6f9611U, 0xbdbc977ebde5c0d4U, 0x3d0fd5c1be316939U, 0xbe4a3c00be0424abU,
  0xbd79595d3d080efeU, 0xbe17d1033df37bd0U, 0xbdaae51dbce63097U, 0xbd74fbebbeac50abU,
  0xbea703c33da2066aU, 0x3e43aac93d2a2fb6U, 0xbde844ed3ce4490aU, 0xbdd19b583d8bc793U,
  0xbe8971b43ceff954U, 0xbda83c2d3cb920a0U, 0x3dba9c4b3ca65289U, 0xbd3b8a56bd930df5U,
  0x3dd0723cbdcfa28dU, 0xbe6e40c23b1fa2efU, 0x3d4ed635beb23546U, 0x3c96cf33bd8f0b20U,
  0xbcf47225bdedbfb6U, 0xbdc5c5febe989459U, 0xbe8c5f70bd36c90fU, 0xbd9ab59fbc0f1d0fU,
  0x3dedebf5bc0aeeb4U, 0x3e03c769bba7a5bbU, 0xbdd8afa2bdc51cd7U, 0xbd64a5dcbbd00be1U,
  0xbd2e09a1be0097ebU, 0xbde2ef57be9d5525U, 0x3df081473dac6a4eU, 0x3e417656bd316426U,
  0x3d3c59df3e8506b5U, 0x3dec615dbc500548U, 0xbbcb1d5b3dbd437fU, 0x3d33b282be24dd89U,
  0x3d51baebbe6343edU, 0xbd89fe78bc495958U, 0xbe297faabd5b9bd0U, 0x3c8982f83c5fd508U,
  0xbe32088abda2a606U, 0x3d122eeabd9d79a6U, 0xbcbe1da2bd166fe1U, 0xbdf67ba13d93fe70U,
  0x3d56035bbd1b1c48U, 0x3d06733abe868d47U, 0x3d12ec2cbd327e36U, 0x3d919e6e3d70c696U,
  0x3e4d15acbd33317aU, 0x3e1a2af13e293401U, 0x3d986571bdcc5848U, 0x3c5ae995be18bffdU,
  0xbd736e36bdc1284fU, 0x3c8c968dbe045b89U, 0xbdc98dc4bd0aa0aaU, 0x3c6f68b3bde8bb45U,
  0xbe0fe1ec3e25b53dU, 0x3c99b0d0bdcbd0beU, 0xbd7a5d0a3d85d0d9U, 0x3d33beee3bd9fb92U,
  0xbdb8882abd8b22ecU, 0x3dc6eb09be1815c3U, 0x3d92e524bd9d2319U, 0x3e2d442abd89936dU,
  0xbdfe681fbd3e4cd4U, 0x3def6d783daa2c85U, 0x3cc380ef3d29c5b2U, 0x3cbc8cb23d68daaeU,
  0x3c9955b23dca231cU, 0x3e3ffdd4be32f8a4U, 0xbdb086453cfa856fU, 0xbcb81bc5bbe07f8fU,
  0x3e857420bd5f955dU, 0x3cc20966bc41ac95U, 0xbca36376bd223544U, 0xbdb9fef43d730af9U,
  0x3e665f16bd3b601dU, 0xbd99d381bd84f921U, 0xbc4f1d65bb000718U, 0xbdbb7f1dbd842f46U,
  0x3e2b22bebc63b64cU, 0xbd6e25d9bbdd054cU, 0x3c8a246f3e8d1e2eU, 0x3ea79b0a3d4a7bceU,
  0xbdd489b23df50b4dU, 0x3dd65d90be90268eU, 0xbc8b6d0c3b3a337eU, 0xbd894cc1bd766d95U,
  0x3da51725bd03e140U, 0xbe147302bc53a045U, 0xbd8e608b3c6e0011U, 0xbc13ee53bdc7d6a1U,
  0x3e3b855abe1c1fc4U, 0x3cdc3e41be4bd0a2U, 0x3da6ec3b3d5efc5aU, 0xbe6c4a7b3d607d28U,
  0x3e7dc49ebcbe9038U, 0xbe0ab9a63d277b55U, 0x3d765b12bc81fe2dU, 0x3e3a82333e783bc0U,
  0xbe38d0443e7f6bbaU, 0x3e40bab3be292537U, 0xbd8c389d3dc7e14cU, 0x3dc5a4193c9c8456U,
  0x3d841e57bd07fd0fU, 0xbe28f6a9bca73b3aU, 0x3de5c7143e24178fU, 0xbdde50453b602a3fU,
  0x3dd09fb93e247286U, 0x3e16478e3de9da3bU, 0x3d10494fbd557a05U, 0xbd3f4029bdd7db60U,
  0x3ddb3528bd36df35U, 0xbca72a9cbdb9008eU, 0xbd0dccbf3e06ca86U, 0xbd2b3f6f3e865286U,
  0xbd599efebb04e4e6U, 0x3e76e53d3db38415U, 0x3beff131bba08ae4U, 0x3d2472193c0ddba2U,
  0x3cad4c29bec59022U, 0xbe3bd724bbbbfbb5U, 0x3d312e023d94ccceU, 0x3d30413bbd010c85U,
  0x3d9a7130bda160f0U, 0xbe010a713cebcf89U, 0xbd634857bb57ce9eU, 0xbc5d23723d09a17cU,
  0xbdf94444be2c1f82U, 0xbe11b82dbe882badU, 0x3ceb539a3ce900b3U, 0x3c50624ebcc0ef4cU,
  0xbded6ae7be32117eU, 0x3daa2d003dd75b61U, 0xbc9f6f01bc19bf0eU, 0x3d2ffa78bde246dcU,
  0x3d3036d4be42ff37U, 0xbdf3bdadbdadf60cU, 0x3db10d103dc8b98fU, 0x3d88e551bcb33459U,
  0xbe8377933e6aa564U, 0xbdaae31c3e125050U, 0xbd168cf73cea1676U, 0xbc6599ed3cf283aeU,
  0xbdd20a2bbb894c6fU, 0x3da000d4bc6efb2eU, 0xbda23c303d834ce9U, 0xbcea3485bd79c615U,
  0x3e7914d9be1c0603U, 0x3eba1ba03dd0ed5dU, 0x3e1a21a53cef2f38U, 0xbd6200c1be39ed6aU,
  0xbd3782e73d674cd4U, 0xbd0b91173cb0deebU, 0x3dbebfd83d963771U, 0x3bc6b2e1bb0444e0U,
  0xbe138e8cbc53d8a3U, 0xbcf20f413d8ad33bU, 0x3d917f99bd228244U, 0xbe059d6f3cc259d6U,
  0xbe763f01bde5d41bU, 0x3d366b90bc5c0543U, 0xbd4acf4c3c8dd5e2U, 0xbe8af056bddc7fbbU,
  0xbd608d61bd9f4e27U, 0x3db645bfbe04e7b8U, 0xbdc886bebcb49910U, 0xbcc95bfd3c84619aU,
  0xbc9ad096bda0a8f3U, 0x3e6ac064bd7023e2U, 0x3cfe3c92be285082U, 0x3af279373d0af2c7U,
  0x3def6ad93e0154edU, 0xbe12e76cbdfc6fb1U, 0x3cf0b97c3d70bebaU, 0xbe7f24e5bd42a337U,
  0xbd86f1acbe1cd5f8U, 0x3d961a98bd0166ccU, 0xbd6291f2bdbc8162U, 0x3ed0f009be96dfd1U,
  0x3c8b35bfbc850bccU, 0x3da917543e3d5487U, 0x3d52d67c3dc9fb1aU, 0xbd77e172be3cf15aU,
  0xbd534555bdae0b08U, 0xbd1d3b32bd475634U, 0x3c575c0ebdb4a70cU, 0xbbf484293d80d7b5U,
  0x3e282e6b3d41d7e8U, 0xbb896808be10d737U, 0xbde43fbebc70f61cU, 0xbc68d55fbb393546U,
  0xbd8b9b5dbe3013a2U, 0x3df5bffa3cbe967fU, 0x3dd11f74be5b9bf1U, 0xbd4c66fabe8dcf17U,
  0xbe19aab1bd713912U, 0xbdfb17593d39f176U, 0x3e80e4033c14ca4eU, 0x3d34099fbda1d651U,
  0xbe398cdfbd33b3c3U, 0xbe2ccf0fbdc73c03U, 0xbd7cc7183e945a6bU, 0xbcdf08043b8299b1U,
  0xbca15d443e8f5e0cU, 0xbd18009e3d295402U, 0xbd8136023b6835b3U, 0x3d27062c3d00e185U,
  0xbc879e1fbda7c2a9U, 0x3e9a0b56be0e525dU, 0x3da09419bdc56605U, 0x3ba6091fbdf2d586U,
  0xbdb3e255be1d5168U, 0x3e333c7c3d63822bU, 0xbc77e21c3dca5db6U, 0xbd57e006bec45cd3U,
  0xbd0f1c9eba1277bdU, 0xbdd24ddfbd1573c1U, 0xbdcfe442bc5751e9U, 0xbc33844abd766d54U,
  0xbd88b44cbcae586bU, 0xbd1c1dfabdd8c8dcU, 0x3beaf2a1bd96938bU, 0xbd775c24bda7497dU,
  0x3e1788dfbd386ed8U, 0xbe31950bbb48ffcfU, 0xbd1de515bdfa94e3U, 0x3e474c17be3947b5U,
  0x3e252cdebe06aa9dU, 0x3e91b18abc846cb5U, 0xbc2724583c340d83U, 0x3dbe7f1fbe65632eU,
  0x3d967dfebe6f8c23U, 0x3e00c3633cca3df4U, 0xbdbf84ca3e2db90dU, 0xbcd4dbad3db7a392U,
  0xbe6d7b24bdebbfcfU, 0xbd65cdc73c82b97bU, 0xba1b627f3d7a97b0U, 0x3e0a123b3d8e605eU,
  0xbd0fca06bd2cce3aU, 0x3d11a0ccbd9e7013U, 0xbcdc1d11bdbf9c40U, 0x3e7af5d9bee8e52dU,
  0x3db0ed79be090152U, 0x3d830b063e373310U, 0xbd7bae153dd38217U, 0x3d8777d53d97587fU,
  0x3e43ac6abce8c8bcU, 0x3e4c4da73c04e5a0U, 0xbde5947c3c8f6797U, 0xbacf55723df4cb1aU,
  0xbe0b3edfbdeb7db0U, 0xbe0a5770bda162a2U, 0x3d69fe6d3bb5d3d9U, 0x3d44f7ed3d41b8dfU,
  0x3d05f9fb3d4dcd38U, 0xbca67136be3e83d2U, 0x3d422570bd367529U, 0xbe607a00be4ec2abU,
  0xbd81f38abd07c061U, 0xbd91aa90bb52335bU, 0xbd9285c5bd6845a2U, 0x3cc0890cbe15e01dU,
  0xbb4c7ef6bb9bd965U, 0x3cede102bdc804ebU, 0xbdb7d798bd981870U, 0x3d67280e3d4272aaU,
  0xbbea52e43d80780cU, 0x3b16ef4dbc5ed84dU, 0xbcfa61ef3d1682d6U, 0x3d39acba3cd7c92aU,
  0xbc91df293d4499b2U, 0xbda459a7bdb45aecU, 0x3d547cf83c467314U, 0xbd116407bd681399U,
  0x3bbb7be7bd4fbe26U, 0xbd157e21bdb86e21U, 0x3d6c4516bb4313b4U, 0x3d81d06ebd81ed1dU,
  0xbc838f92bc4606ffU, 0x3d6715d03cf04095U, 0x3bc4dee73c521fbfU, 0x3d315142bd0f7319U,
  0xbda2903bbd9816daU, 0xbd345dd23cca00b4U, 0xbd733936bd32fe2bU, 0xbda381343d2d6beaU,
  0xbc93fba93a27b9c4U, 0x3b840be73d00377dU, 0x3c1ab391bcfa0822U, 0x3c59d7e0bd8f6b2bU,
  0x3d33cd71bce85070U, 0xbcd3d93bbd2af07eU, 0xbca72d93bcbab65bU, 0x3b907bb5bd5bf449U,
  0xbd046ab4bdacf4d3U, 0xbd9a0ec9bb7848ccU, 0xbd64046bbd776b50U, 0xbd19a0f4bd0a4da7U,
  0x3d0142d2bb2108d5U, 0x3d10e5c3bcfc77b1U, 0xbd686cd23d05db86U, 0xbd7349ef3d3b8ad3U,
  0xbd4389c5bd518a1aU, 0xbd9c9d7cba919d6aU, 0x3d87bfcf3a8b2d4cU, 0x3bad97be3c7685a6U,
  0x3d8ee5cb3d57bacaU, 0xbccab1a1bd82a6ddU, 0xbb87be02bc804392U, 0x3d655350bc43cc15U,
  0xbd90fb31bcf370b7U, 0xbd010f173d21b088U, 0xbc6ea626bbbe1152U, 0xbd4ae0493d64a175U,
  0xbca994c93c56a002U, 0x3d02485e3cf0fba8U, 0x3d2cd0eebd9a4a75U, 0xbd9d9208bd4d29a6U,
  0xbd060236bdb0c629U, 0xbd79bbefbb6a9e86U, 0xbcd0adfbbc016646U, 0xbd99bff8bcef0130U,
  0xbc153e3dbd40e212U, 0xbddffdf3be060631U, 0xbd4720d9bb985fb6U, 0x3cee4943bdb7f479U,
  0xbc833e683d190bd8U, 0x3b9698983cb4298bU, 0xbd6d35abbdff5b48U, 0x3c9b5f883d4c8d28U,
  0x3cab83d7bca540a6U, 0x3bfc484ebda10f3aU, 0x3d98b1cdbd07abdcU, 0xbd733694bd1704aaU,
  0xbd8f2192bccfb912U, 0xbd9a59ab3d4da189U, 0xbd547f673d10a735U, 0xbc96bcb2bca05445U,
  0xbc94705f3d0ffbe8U, 0xbd6f1713bd3f3b46U, 0xbc7abe293d2c3b6bU, 0x3d84e4cf3a891481U,
  0x3cbf68453c7e7aa9U, 0x3c7ba6e1bc88b8deU, 0xbc0e0273bbdcc3fdU, 0x3d903743bc9962f7U,
  0x3cdc4900bd526315U, 0x3d3f434bbd657af8U, 0x3d4fb8c4ba15e288U, 0xbc0fc3cbbd89adabU,
  0xbd4f24b7bd4f6cd4U, 0xbd1dc540bd8fe2faU, 0x3d4f80053d2bdc27U, 0xbd9088a5bcd0d97dU,
  0xbdb7c643bd3085bcU, 0x3c7e5431bd02c7c5U, 0xbc2bbf98bc96a263U, 0x3d112777bd03cf75U,
  0xbbeba5163d8c4372U, 0xbcdad283bca252cfU, 0xbd7358893ca3097eU, 0x3cbbc6fdbd859a05U,
  0x3d5e257eb9d31163U, 0xbcd4f5fe3b475bcbU, 0xbd19b6febad6caabU, 0xbdd159d4bd0d790bU,
  0x3d260d3ebd68840fU, 0x3d271f6bbd8b08eeU, 0x3ce89b3abd8a0859U, 0xbcb6b4e4ba37e552U,
  0xbd2fa8a73d63a6efU, 0x3ce565a1bd11ebbfU, 0x3d0dd7613d30a372U, 0xbd44fccb3cb5175cU,
  0x3c872b15bd68f28dU, 0xba34dc143d4781b2U, 0xbd91b062bc60bb3cU, 0xbda4e2253d4194efU,
  0xbc11bc783c7badbbU, 0xbcb4e6ec3d69c41dU, 0x3c0245aebcd7e0adU, 0x3cf715bc3d32c3f1U,
  0x3c742a2cbd77a810U, 0xbdacab4b3d7129d4U, 0x3ce3ecdcbd6d928bU, 0xbc1a19453b3d45cfU,
  0x3a97480d3d93c5a4U, 0xbd26ebd6bcb9ce74U, 0xbb14c186bcaa32e9U, 0x3da98447bd446decU,
  0xbdb005083d4e7e67U, 0xbc4bc1fabdd35591U, 0xbd843021bcb337f8U, 0xbd819b95bdac7192U,
  0xbda6a41dbdb25826U, 0x3d4464ffbd2986d4U, 0xbcbaf8953d7f8415U, 0xbcefe37fbc152f87U,
  0xbca6598abd7df099U, 0xbc0036c3bd86ff74U, 0xbd6016e3bb034d9cU, 0x3c9963d2bc9695eeU,
  0x3cc90be4bdf60c4bU, 0x3a9c58193d3ced46U, 0xbb1ca9b3be02859cU, 0xbd453b5bbdcb2934U,
  0xbde9598a3d8f21daU, 0xbd193f4bbc662e7bU, 0xbc546a89bc5937efU, 0xbcd61e853be46160U,
  0xbd2caca13ccfccd8U, 0x3ca3495fbd060f77U, 0xbd686573bdb20987U, 0xbdc385f13d992736U,
  0x3d7d1d05bd9ff8a6U, 0xbe2265a0bdb03e0bU, 0xbd9947b3bc3a3991U, 0xbd9a4bd1be16e857U,
  0x3c38d190bcf9c54cU, 0x3dc94eb0bc36f73bU, 0xba8f9f883da877f3U, 0xbd983b4fbd8e6394U,
  0xbd97a8e0bd52eafdU, 0x3c910101bd0427a7U, 0xbdb745e9bc845dbdU, 0x3dcabe4a3d9fd763U,
  0xbd8b1b293cd74f05U, 0xbd2de1ed3d2f6c82U, 0xbb1f6a9f3d8b6d15U, 0xbd3db90ebd94c9ccU,
  0xbd0223efbd75d1c6U, 0xbcf32c95bca5cf9dU, 0xbd1d2af53d2453a6U, 0xbd1c4141bd8c467cU,
  0xbd22e29fbdb39819U, 0x3d0e17d13cd5560bU, 0x3d8d36db3d311d9dU, 0x3db102edbdebd010U,
  0x3d2321d03bd53924U, 0xbb5dc9aabd270166U, 0xbd36bf0bbd990abfU, 0x3d44d561bd4bcaf5U,
  0x3be40823bd5beb32U, 0xbc34cbb63d78324cU, 0x3ceb9e0fbd822451U, 0xbda0cf35bc834a00U,
  0xbdd1df4ebd8fbd96U, 0x3d19aece3c8b2a72U, 0xbd9597cc3a1e4fabU, 0x3b6d63253d3cfcd7U,
  0xbd20b04fbd7e82cdU, 0xbd5c63a2bd81ba56U, 0x3dcccca33cd05c95U, 0xbd928d33bc523162U,
  0xbd0d3cf13cef13c2U, 0xbb9e5c0fbd6dd0fcU, 0x3c8b2be3bdbc78d1U, 0x3dc351923d56df79U,
  0xbd6b59853d5bea04U, 0xbdbd42be3be98eaaU, 0xbae8d2ec3d878be5U, 0x3aa060943d1be424U,
  0x3d4707d7bd93b4a2U, 0x3d400749bd7b4999U, 0x3d089b9cbd10c46bU, 0x3cf6257fbe27c416U,
  0xbc8ce637bdf1e9afU, 0xbd22c0d0bd8b988eU, 0x3d0620a63d69c877U, 0xbd0b178fbdb0af0eU,
  0xbd13235ebd8b155fU, 0x3cbdabbd3da2d83bU, 0xbd7b250bbda739d7U, 0x3d59f4e33d257169U,
  0xbd87685a3d5adef2U, 0xbc9fba823cb4dc5bU, 0xbc9357053c2049e0U, 0xbddda6c73da12572U,
  0xbd9f29963d6b2672U, 0x3d18defebd6cd71cU, 0x3d9d8623bd1a174eU, 0x3d1618a9bdd2de34U,
  0xbc5da9c2bcb2dcf0U, 0x3a35f3babd59fba6U, 0x3d05fa83bd72b74aU, 0xbc1510fb3daec75cU,
  0x3cd2d384bd82eefdU, 0x3c219008bd298373U, 0xbd261acc3d91ded8U, 0x3d7f560f3b59615cU,
  0x3c8f122bbd9f51f6U, 0xbd89e51a3d1d4711U, 0x3d3348fa3cf28af2U, 0xbd06361d3c80bdc9U,
  0xbbee67c73d3969abU, 0x3ca25226bdb693d2U, 0xbd4d23b53d822c55U, 0xbda9588c3bc9058fU,
  0x3d67f8ad3bcbd39eU, 0xbdcf86273bfcb0b7U, 0xbcabd59ebd94e471U, 0x3d36838cbe077dd2U,
  0xbd47b8a2bd2aed2bU, 0x3d3cfed03d43384fU, 0x3be728a7bde8915eU, 0x3cf6dedabceca252U,
  0xbd6e4e08bd7aaa96U, 0xbda3f0dabc3cb442U, 0x3d3ef8553cd3858eU, 0x3bd2df7fbbd6816eU,
  0xbdf270ed3d0a7291U, 0x3bea5ca33d811295U, 0x3d7409163c0a7222U, 0xbd9b3ed9bd31b549U,
  0x3c5261eb3bc592d4U, 0xbde974be3c00ade7U, 0x3ca80d5dbd371784U, 0xbd8e29fcbdcf28c6U,
  0xbce6901e3cb649e1U, 0xbd52c658bd8cbec3U, 0xbdb40345be4d0527U, 0x3c8287153d9454c3U,
  0x3c2062683b599d05U, 0xbdac1ab83b939112U, 0x3c72fcf43daf475aU, 0xbcf8eceb3dc2d997U,
  0x3c2138e2bd29f934U, 0xbde1fe1e3cb04b7fU, 0x3c98d6ea3c8c207eU, 0xbd1f2a1abd8fbeddU,
  0x3d481707be0c3584U, 0x3c7a979bbd05e397U, 0xbdc65a073da1f25eU, 0x3cb4db8dbdb19796U,
  0xbc0f77bd3d1101f9U, 0xbdd08977bcf17c1cU, 0xbd3950efbe15e314U, 0xbdc1e49bbd0f0d49U,
  0x3d80f865bda45279U, 0xbb4b9f16be021532U, 0xbd136d623d8b59a2U, 0x3bede25bbcd749a7U,
  0x3c117c4dbd826b25U, 0xbe124e8cba690f5bU, 0xbba44495bd3848c5U, 0xbda65009bda8defcU,
  0x3e15b625bda740baU, 0x3df0bc2e3d9cdafdU, 0xbc84fe8abd6e3b24U, 0xbcca5dc33dfaabfeU,
  0xbe07be6abcbe9eacU, 0xbd656c913bba142dU, 0xbb281528bd9f4396U, 0xbc2f53a5bd089fadU,
  0x3cf4a24f3d49c33dU, 0xbc0c2402bd895eb9U, 0x3d4a9de2b9613bf0U, 0x3ca441c23d7e5944U,
  0xbd3b039abddad817U, 0xbad2bccfbdbbf044U, 0x3bf7703dbd061449U, 0xbd825b353bcf4496U,
  0x3c98fbbebdd85fd0U, 0xbc7d4d91bc3c9d36U, 0xbdefbe6c3d15da92U, 0x3b9c63a8bc739b30U,
  0xbcdde693bd3e40baU, 0x3d9ab3583d365c0fU, 0xbd92310dbe0ffdf3U, 0x3d34d5113ab70cafU,
  0x3cc9b7383d98065aU, 0xbd924148bdbf0b5eU, 0x3cca4113bd60363dU, 0xbb14f9d73d52b72cU,
  0xbe046e77bdbbcd1fU, 0xbe1b86cebd949b17U, 0x3cfd44883d71985cU, 0xbce9987abc9ec8e4U,
  0x3e03ee5dbaba6e6eU, 0x3df0efddbd4fd604U, 0xbe15c4293d184062U, 0xbccc13403d4060eaU,
  0xbd934f8ebd8a408bU, 0x3d2c7ed73d6b9ed1U, 0xbdb3d97dbddc6b07U, 0x3cc595cb3b87058dU,
  0x3d5fa61abc518bd1U, 0xbe1f6f0dbc3060caU, 0x3ab20783bd1b0c51U, 0xba9e69bb3d94e02aU,
  0xbd889ea33d5e054bU, 0x3b25eb24bd717b33U, 0x3d2b2e68bcbbc1b2U, 0x3c95fae13db7fbb0U,
  0x3d6256ad3d0b110fU, 0xbc56a71fbd8b365fU, 0xbc667905bd8c9bceU, 0xbbb8f74eb9ac52a8U,
  0xbe06f8893d4517ecU, 0xbd8289793d784455U, 0xbe296e85bca0be69U, 0xbd365b9dbb745eb4U,
  0x3d8948a8bdd50965U, 0x3c2838b6be043d28U, 0x3d5e2e6dbc03cafeU, 0xbd60e294bcae208fU,
  0xbb1e2e15bd1136e9U, 0xbdc74fc8bd0e72ddU, 0xbd503f9b3cb29ed2U, 0x3d97a209bc4b442cU,
  0x3cd9d4a0bd9f888bU, 0xbd7c5781bd982333U, 0xbd92dc57bbd5c6f5U, 0xbc93e9f93c8be0faU,
  0xbc9f8428bd88294eU, 0xbd16d21c3d7e1c9fU, 0xbd514095bdbb5eacU, 0xbd122dfebdcfe456U,
  0x3db5a8dcbd9fc3b2U, 0xbd8d2d15bdb27fddU, 0xbcb25d26bd0baeedU, 0x3dabae903c8ad752U,
  0xbd8a43fd3c70c7beU, 0xbde42161bde6584dU, 0x3d0ca33ebb15df94U, 0x3d9493b63dbe0be0U,
  0x3d91df60bcda5e5dU, 0xbcf6f483be1391d5U, 0xbce1e70abd58063fU, 0xbd91e3363d8ac7e1U,
  0xbd6069e13d963ad7U, 0x3d44e0b6bd84ce9eU, 0xbdce977abe15e8e5U, 0x3d841d9bbc5cda6dU,
  0x3d4c27c83cf59dbaU, 0xbdbe317dbc885af4U, 0xbd6c03363d96e9edU, 0xbd39a1d23da4cbf1U,
  0xbd3bd3a33d6a592dU, 0xbdb37d1cbe2cd004U, 0x3b00dc03b9c05e6aU, 0x3d8379c1bcc0d219U,
  0xbd7b7d15bda9f544U, 0xbcc87eafbda9de5aU, 0xbd5bc93a3db6f6f4U, 0x3c2b71d7be1a27f9U,
  0xbd6b0e0cbd3a29fdU, 0x3acf96683d1f0313U, 0xbddc4823bd23cdffU, 0xbc88c09cbc39d0fdU,
  0xbce19e7dbd81114eU, 0xbcd8b187be67dd9bU, 0xbd7751773d856d10U, 0x3c35199cbd0ba45bU,
  0xbbf861f8bd607ee3U, 0xbe199be83d8f9f72U, 0x3c6077b9bdba0094U, 0xbdcaa50a3c7f6c51U,
  0xbd2cc965be25cc97U, 0xbcbb6f6abdf1ad02U, 0xbd7f2f883d959edcU, 0xbd3a470cbe008721U,
  0xbdca57c6bd725195U, 0xbcca27d0bc2b6652U, 0xbce7945abe2d89feU, 0xbc52838bbd140c22U,
  0xbca0ad6fbdce64eaU, 0xbe3d833cbd7176b2U, 0xbd417406bd76648dU, 0xbdf347b9bd083c03U,
  0xbde78822bd3a3b0aU, 0xbe10404ebca28c56U, 0x3cdfb7c53d5329bcU, 0xbe2b0956bbea6b7cU,
  0xbbb49f31bd887519U, 0xbe0842bcbdc92d12U, 0xbda4c1b63d80c269U, 0x3c2e436bbdb3cc6eU,
  0xb9cf1bbdbd8cb60fU, 0xbcf5c9473ceec106U, 0xbdf4eb87bd66d256U, 0xbba7d1db3d5dae26U,
  0xbdc4b1d5bd08f9a3U, 0xbd4d18f6bd8c3825U, 0xbd9251b9bd86b33dU, 0xbdb746493d4e6b27U,
  0xbdebb57ebd6504cfU, 0xbd1540b63d114be3U, 0x3d74c22c3d0fbba4U, 0xbdec4caabccb8eb9U,
  0xbe06a32bbde1fb14U, 0x3d9fb0853df69818U, 0x3d5cbbe23da648caU, 0x3d0669633cc8bdbeU,
  0xbd59d146bc82e767U, 0xbdffb780bc9cf136U, 0xbe51348ebdbb6633U, 0xbd3a88163d82b6ceU,
  0xbe0f87263cb281e7U, 0xbe036fd73e2034ddU, 0xbd0d9395ba345c28U, 0xbd49283fbd6a7486U,
  0x3dcf67993dd9fe2cU, 0xbddf946dbdcc03ccU, 0xbcfb57a63d4b6934U, 0x3e30e39a3c2f72f1U,
  0xbdd52119bde6bf67U, 0x3d959324bcb89eb7U, 0xbe13e0b7bdcedf17U, 0xbd6f78c1be23a3ebU,
  0x3c0b7d34be77a618U, 0xbeaf0c40bd44de6dU, 0xbe56467abd126a86U, 0xbb3bc4083da75aa0U,
  0xbdadc16fbe416472U, 0xbdcc1502be04c7eeU, 0x3dd8f5fd3c998e19U, 0xbe0b2e253d89a4f8U,
  0x3d987718bdfd2825U, 0xbe0fa77dbe38bc34U, 0x3d87c0ec3cca81a7U, 0x3da88e6d3d6a51e4U,
  0xbdef542b3cb43614U, 0x3e160627bd8641e9U, 0x3dc7b1ee3c292475U, 0x3d82ecb03dbf6a30U,
  0x3cb268e3be4243b5U, 0xbe15a22fbb2f0bdeU, 0xbdde73bdbd85f29cU, 0xbd6e6b0d3c0c0c6eU,
  0xbdb0196ebe098cc9U, 0xbdb0f054be243a58U, 0x3dab4a063ce8175aU, 0xbd492f8cbd799d0aU,
  0x3d0dfda5bd7b9e2fU, 0xbcc4eefcbd0e88e5U, 0x3d66ad6cbe03005cU, 0xbc1005c83df52914U,
  0x3d5be261bdf39b95U, 0xbe3c64e63e0d421eU, 0xbe0676173d96da03U, 0x3d580bd6be6dc9e4U,
  0x3d8eaad03e803c33U, 0x3e2e5e0fbcf16d5aU, 0xbd845986bdb60db5U, 0xbd427ac1bc29dd2fU,
  0xbca3a9db3ea4d4f4U, 0x3e23116bbda5bd37U, 0x3d8f9b2ebd9c2b3cU, 0xbe3ba542bd2037c6U,
  0xbdb597353d0a32d2U, 0xbd687eed3d975b9aU, 0x3c5aa9d0be409deeU, 0x3e0cb82cbc1297e2U,
  0x3bb0790dbd61e95aU, 0x3dc2bae9bde12a98U, 0xbdc743993d1f0e3aU, 0xbd780fd9be1cc9e7U,
  0x3ca96d30be74fde1U, 0x3ca47c1e3d9bfadaU, 0xbe3c04a53cc405a5U, 0xbe03d61bbc944045U,
  0xbd41de513e5b2f24U, 0xbdfc3fe6bdf5439cU, 0xbcdfc0de3da161d9U, 0xbdf9473abc597a6eU,
  0xbd41668a3c837067U, 0x3bc6f8543d731f4dU, 0xbc914d34be2d5e4aU, 0xbcde0dd23d817166U,
  0xbda5d3c43c3f7e92U, 0x3d93f750bcb4c183U, 0xbcf99b37bd5883c4U, 0xbdb3c2a4be160b78U,
  0xbd70516ebe8dd756U, 0xbd3b22a0bd9bf460U, 0xbe520e90be3e684bU, 0xbdce1c0e3d26f814U,
  0xbd16e68dbe0a6a99U, 0xbd878f3dbe8c79a8U, 0xbd80bc16bd0b2f17U, 0xbd9004293d0da7b6U,
  0xbd159e80be01f960U, 0xbe2f04313d8a296eU, 0xbc955cc73de37d9fU, 0xbdbb95cbbd3804cfU,
  0xbc23a644bd4b3efbU, 0xbd130bc63e625c53U, 0xbd8bb5ca3de0c57cU, 0x3d685e363c933a8aU,
  0xbdd2be8d3dff2ca7U, 0x3c8b6ad5bce53c65U, 0x3e3147dfbc44cf3fU, 0x3b5ca20f3d26ac1dU,
  0xbd3b3d883ceb155aU, 0x3e3321bdbd36f196U, 0xbd0f2c053d88f382U, 0x3b1ee575bd9dc784U,
  0xbdeecbd3bd99f0feU, 0x3da7a2283e9b375aU, 0xbc4ab1c4bdca2d79U, 0xbe6ef1a43dffe941U,
  0x3da50848bdfc2f84U, 0xbe17a5da3e37c357U, 0x3c50954ebb283722U, 0xbd40541fbe95a83cU,
  0x3dd2cf3a3c8fd833U, 0xbd3266dcbd42308bU, 0x3dad0a683d92df82U, 0x3d881e713d1a5944U,
  0x3df87e783eada29eU, 0x3dbd3d14be96e31dU, 0xbca52530bd5f5ce5U, 0xbd7de478bd129de1U,
  0xbc6b79a3bcc54c50U, 0xbce8f0f63e9670feU, 0x389ea552bddb1fb2U, 0xbd8f7d34be3a0cfbU,
  0xbd5e63c4be06d675U, 0xbdaae6e7be2a4a72U, 0x3de8c55cbd85130eU, 0xbd012b883e1d2ad9U,
  0xbe568edf3c5b9974U, 0xbd31d6c6bdb15f12U, 0xbc89a1c5be6abd80U, 0xbd706bb4bd815cf8U,
  0x3e3500983db4d62cU, 0x3e36e0b8be0d9c5dU, 0xbd0bdfbbbd3f18efU, 0xbbb6093d3b0c60ebU,
  0xbe584f78bdc14cd7U, 0xbca9c2153df69894U, 0xbd0db7cdbdfaa04dU, 0xbe18a04dbe353ce5U,
  0xbe5eb769bdec86a7U, 0x3e695ed93e6b4c84U, 0xbd5652efbd30c120U, 0xbd8ff1e0be96149aU,
  0xbe3e7acd3dca0052U, 0x3ce5784cbcf8a0ccU, 0x3e51f0ebbc364138U, 0x3d7999abbce213c0U,
  0x3d9a9e3d3d9ada93U, 0x3d73d582be276f29U, 0x3bb2795b3d5260a6U, 0x3d8d379fbdba8b18U,
  0xbe414d7cbdc0a353U, 0xbe603f7f3e78eb63U, 0xbce20ca0be6406c5U, 0xbe0e999e3b9b9cbeU,
  0x3d69ffc5bc6b7ce8U, 0x3d16d4fc3e4ef1abU, 0x3de16eb23cf1c904U, 0xbd86aadbbe0f6b01U,
  0xbe16fa13bd8d1ee2U, 0xbd55fa073df79905U, 0x3d85dafc3d3da7f7U, 0xbd78a9483cd7d528U,
  0x3d2c05253ec00061U, 0x3dd72e643dc5e8cfU, 0xbcfee00fbd892176U, 0x3e9eb223bdfbc134U,
  0xbe0695c53cf4d07cU, 0x3d21852dbca537a5U, 0xbdc7befcbe193fe5U, 0xbdcf7e043dd8038eU,
  0x3d9945ac3e0ed6c3U, 0x3e0de6313e1b186eU, 0xbe3eec233c5d8db8U, 0xbdb70e253cc7746eU,
  0x3cc66f2b3e162182U, 0x3e291eb7bc9c151fU, 0xbc9311833e5c980cU, 0x3dab0d00bb9ee284U,
  0xbe3d9edcbd92ecb1U, 0xbd7811c93e666312U, 0xba843ce7bc127035U, 0x3deb3d1d3d06e125U,
  0xbd16c0b0bdb90c8aU, 0x3d9dc513be5e0d31U, 0x3de3ebd6bea52895U, 0xbe3db5543d50aed7U,
  0xbd794d27be371351U, 0x3ead8368be2405f6U, 0xbd94a27bbd711031U, 0xbd2b3ac2be2e5ac8U,
  0xbd8d4700bd693fccU, 0xbde85be0bd5b5bcfU, 0xbdc3b0053d28b277U, 0xbd8210aa3d56d998U,
  0xbe66c7df3df3b46dU, 0x3e1b536d3e3cc019U, 0x3dfa1db93da2a28dU, 0xbe1fa1773dfb2e59U,
  0x3d9b29a9bdf972edU, 0xbe5707cabe235bc3U, 0xbc819a90be594ba9U, 0x3dd47d3c3d9556eaU,
  0xbe27ae36be8e11c4U, 0x3db4dc59bc3ecc4eU, 0x3ccdb3ff3cc8664aU, 0xbd0a4279bdd20f8fU,
  0x3d4eae85be5729fbU, 0x3dc0d57fbc4c053fU, 0xbb1a0a823dd90b1eU, 0xbd8de4a5bce1f847U,
  0xbe68d2983d9d013aU, 0x3d17a04c3d4fbad7U, 0x3e08a3103d81a5afU, 0xbdd463553da4b428U,
  0x3d9d3e9c3c811936U, 0xbdc3ddee3d3bea97U, 0x3ce6eb06b9303750U, 0xbd31d8e9bd6b67deU,
  0x3c964316bd00100cU, 0xbeab41523d98bee3U, 0xbe30e0cc3c80f4fcU, 0x3caab100be460b7dU,
  0xbe0c1de3be297d23U, 0xbdd033e63d9cc4d3U, 0xbdaaa93b3e116058U, 0xbd5074cf3d06490eU,
  0xbcb50dab3d95ea83U, 0xbe49e802bbc789dcU, 0xbc6e97e9bd589cbaU, 0xbd996d863d8100f5U,
  0x3c0684b4ba8fb155U, 0x3e12fa65bd862a8bU, 0xbd8ae49dbe88350cU, 0xbe2b0bedbe2f3a19U,
  0xbdb0a4eebe282d0aU, 0x3e0681df3c7a3223U, 0x3d0e719e3a67c416U, 0x3c85df27be243d98U,
  0x3e4c2cfe3dbae847U, 0xbcc2fce7bc4a181bU, 0x3e0af6f03dda93ecU, 0xbcc839b03d7a1279U,
  0xbe8525a13da051b6U, 0x3e1fbc413dbf26bdU, 0x3d87063c3da41089U, 0xbdfe9cccbd843630U,
  0x3db8ee64bd82793fU, 0xbdeeb0f63e074340U, 0xbd88cddabe5d14dbU, 0x3e6c3a45be1de03cU,
  0xbc33962dbda2a41eU, 0xbe388856be5e546fU, 0xbea43074bcf2001dU, 0xbdaff292be2df93cU,
  0xbb8750dd3bebff5bU, 0xbda0ad693d5f6412U, 0xbe023b403e65b098U, 0xbcfb274a3cdc5ccfU,
  0xbdd7e89b3e24a3a2U, 0xbdb00316be289986U, 0x3d8bd6a2bc665077U, 0xbda62535bd3984adU,
  0x3e71a8efbd712a4aU, 0xbe0f948dbb5eb399U, 0x3d3fcae13d9eeeddU, 0xbddebab7bd4aaeb4U,
  0x3d1486203e548844U, 0xbe5237463d2fdbd2U, 0xbdee60803d9db094U, 0x3cce8de4bde38b72U,
  0xbdede9a8bd0a6845U, 0x3d9fb649bccd7e48U, 0xbe745ab4bd921d22U, 0xbcb019023d943f0eU,
  0x3df3e162be553c20U, 0xbe94fce0be2cb9bbU, 0x3d578ef4bdac5b3cU, 0xbd1740113dadb36fU,
  0x3e6bc66abdf346ceU, 0x3cb0f8ba3c19b6c4U, 0xbd941890bd75e84aU, 0xbd4d8d073da824efU,
  0x3bd71fcc3d4a7a25U, 0x3c9a0ac23ddf2f17U, 0x3e79fdc8bd3660d2U, 0xbbca551f3d539895U,
  0x3d1f0151bc9a5befU, 0xbcf61a923dd12d74U, 0xbeb61ceb3c1e8f4eU, 0xbd5dbdeabc5b868bU,
  0x3da45105be6c25f1U, 0xbd8094f73de258caU, 0x3daaa9d43d233796U, 0x3db70c95bd040502U,
  0x3e154b633d4557e8U, 0xbdd51b233d713c59U, 0x3cfa9356be00bf1eU, 0x3c83911a3ca07ce3U,
  0x3e851f653d8c2787U, 0xbc5246443d1867b5U, 0xbc3b2e93ba683e9eU, 0xbb92a3ecbd75603bU,
  0xbd1ed580bd8ef6e9U, 0x3dc817423ce2d2a0U, 0xbe8bed703e32f47dU, 0xba7042b63d87524dU,
  0xbe3c23cb3d792887U, 0x3d5bff613d9ea506U, 0x3c29c1a43c2d53ecU, 0xbe6a2a7fbd0b6c36U,
  0xbd09f2cbbceecc11U, 0xbd6e961ebcd4549fU, 0xb82ad66cbe164df8U, 0xbe2b3f163e147f18U,
  0x3da768cfbe15129fU, 0x3d31ad86bdf7d7cfU, 0xbd90c52ebd081990U, 0x3c824e283e309c79U,
  0xbbe6c1143d37f4ceU, 0x3c10eac1ba814753U, 0xbe4f67a33dad351aU, 0x3d145602bbdaa162U,
  0xbe44909e3dfd367bU, 0x3e7ffa183dfe459aU, 0x3cf78f813d78f2e8U, 0xbee3e9e1bda4d5e7U,
  0x3e5345eabe1d1a12U, 0xbe81052abc151925U, 0x3d4efa8cbe2dffeaU, 0xbd316f25be187f75U,
  0x3da9468c3db2f635U, 0xbd9e5daabd820e1bU, 0x3d21aa403cf55956U, 0xbdc02fdabdbd6546U,
  0xbdc2a2573e01f664U, 0x3c37e3a2bc841d76U, 0xbe865fee3ded5252U, 0xbd90c663bda8e0e7U,
  0xbd622c5ebebddb0eU, 0xbd9c0399bd0ce6acU, 0xbe2bb6323c441277U, 0xbe26a9a8bd0da002U,
  0x3e0061f4bd886986U, 0xbe0f52d63e0e7380U, 0xbbaad032be1e3db8U, 0xba9552d4bdb2239eU,
  0xbc6630fd3d0d1439U, 0x3dd6755f3dff6e55U, 0x3cb0aa153c140518U, 0x3d822f3f3d0afb8aU,
  0xbe74f48f3d64f71bU, 0xbd39891fbd2b06f8U, 0xbe80aa1e3e029113U, 0x3cb9ebf7bd844fadU,
  0xbdf5797cbcb7d223U, 0x3baf0c5e3d91db7aU, 0x3ddebe78bd9edf1bU, 0x3d4183033d68f42cU,
  0xbdbea73fbdaa76ddU, 0x3c901af53d3fca97U, 0x3c75052fbd8cf53bU, 0xbc3121fe3e9062b4U,
  0xbd412a51bdeaa9d8U, 0x3dac5a34be0487caU, 0xbd83af83bd49a30fU, 0x3cd62c8d3d2846e9U,
  0xbe10d5c1be1b8df6U, 0xbd66377d3cd016baU, 0xbe47ee773e157c61U, 0xbd9f21c23d997693U,
  0xbe2a4cbc3e1ac32cU, 0x3e3b088ebc8f51a8U, 0x3da113d43cbf6ebcU, 0xbe6b185abda1ac8fU,
  0x3cd9a51ebe0ad87bU, 0xbe077278be65ffedU, 0x3daffe9cbe51b117U, 0xbe0c6ebfbcc873e2U,
  0xbc83a64cbdee59a1U, 0xbb0ad755bdbcfbeaU, 0x3e3a7806bcb00133U, 0xbd2699d83b1f4f20U,
  0xbbddb9f5bd9ae0c6U, 0xbd9ad7d33dc39131U, 0xbd284c073ddc10aaU, 0x3d2477393d9d9c93U,
  0x3d31a91cbe14f88bU, 0xbdbb8db8bd18585bU, 0xbd9cc582bd45f929U, 0xbe2c7f1f3dc4dd6bU,
  0x3e43b1cf3da435deU, 0xbcb393243dea81b5U, 0x3bcb5d713daeb5e7U, 0xbdb6d662bd66963cU,
  0xbe1fac2c3a89dc2fU, 0xbd6f06473e516918U, 0x3cda92793d1ff0afU, 0xbca42c4b3e04865cU,
  0xbe4c371fbdca1a3eU, 0x3e1301123caafab3U, 0xbe0c0bf63e11608fU, 0x3ca607503df92518U,
  0x3d14fec23d30a2ddU, 0xbebdb709bc3ce5f7U, 0xbc0f77953beb6d44U, 0x3c27b4b2bc8a36c9U,
  0x3c37d475be16f4c2U, 0x3d56638d3da2c448U, 0xbc96a8bbbc857e6dU, 0xbdc2eeefbd4588daU,
  0xbd0d1bf5be1dc697U, 0xbda908efbb8b35a7U, 0xbdf5cb7abc32a5c5U, 0x3d4edfc0bdcac86cU,
  0xbe3407de3db1c9dfU, 0x3ca988093d30b662U, 0xbe6bd5103dee8351U, 0xbdeff4babc347110U,
  0x3da1b51c3e4a7fa8U, 0xbc8a1a38bd7b43adU, 0xbccfc9d4bb3dfe19U, 0xbe277abebd0d8628U,
  0xbde95b55be356e12U, 0xbd1d7f603cd74d79U, 0x3d337ca7bb77c7dbU, 0xbe8a5033be183000U,
  0xbd0fb27dbe867f7eU, 0x3d8f4d78be516bd0U, 0xbaa0fcfb3d309100U, 0x3d4661793cbc8c49U,
  0x3dd4506bbe24f48cU, 0xbc4625f63d5d762cU, 0xbd44191dbdcaed5bU, 0xbd1361d23d885d59U,
  0xbd1507cbbe32d5baU, 0x3c8fed7c3d1e9886U, 0x3d6043a4bd89d478U, 0x3dbf74d9b986d0d0U,
  0xbe01d9b33cf7e76eU, 0xbceba468be65a0b3U, 0xbda082ff3e733291U, 0x3d8058533d2a8981U,
  0x3d7fe280be43f0ddU, 0x3c1293dbbca6a8e9U, 0xbc71f8cbbdef4ed4U, 0x3d8c3007bda38c81U,
  0x3d8a9dbfbe54b3f3U, 0xbd70d60fbd18dad8U, 0x3dbcf3213ca80273U, 0x3bccd1303d8b5647U,
  0xbe7d744c3d28abb1U, 0x3e48073fb9ea6ee9U, 0xbdc2b8dd3d9a6b29U, 0xbd2a975cbce97e3aU,
  0x3d885f4f3e37e140U, 0x3da94c98bdce8c36U, 0x3d7908ef3d845d41U, 0xbdd29790be18ab8fU,
  0x3c0e3d12bd2ba06dU, 0x3e46d5cabdea3f81U, 0x3e07bcab3d751186U, 0x3de0c8afbe26f7b0U,
  0xbe898efdbd764345U, 0xbe5645eb3d64f8d7U, 0xbc7798c93d029fe1U, 0xbc064fd4bd98c4cbU,
  0xbecc2bb93d1a4d5fU, 0xb82d79a73e405b18U, 0xbda5a1183d88e227U, 0xbcdb3ecdbd6e02cfU,
  0xbd6ac0f43d43a72bU, 0x3c076c93bd8ba891U, 0xbddb066a3dbb9543U, 0xbe1ec0eebe29cbbfU,
  0xbdb816b6be06044dU, 0xbd8ae3113d9a8248U, 0xbe7dc92b3c397670U, 0x3ca2e445be0da421U,
  0x3bb02308bcaeb097U, 0xbd9b2573bd278ef9U, 0xbe05daaebe1c9832U, 0xbcc313ed3b1f1e93U,
  0xbc90408bbd88fcc2U, 0x3ca95f023d0c102eU, 0xbe2da372bcf5d243U, 0xbe6d018c3d53f02cU,
  0x3d028d313da7d89bU, 0xbd4bf6a2be393367U, 0xbd6557023c62596aU, 0x3e97a232bda9b38bU,
  0x3c303431be1ad251U, 0x3e04aeae3b721c8aU, 0xbccda0173ca0ab08U, 0x3d8521d2bdcf030fU,
  0x3dd69013bb67f48dU, 0xbc7ef357bc0b5161U, 0x3cfc2eaa3d794479U, 0x3d1106a8bdbf1428U,
  0x3d4ffaca3bf27951U, 0x3cb5a78fbe03b382U, 0xbd97391ebd917a74U, 0xbdb6da4a3bf1d37cU,
  0x3c83c9953e08c9d1U, 0x3dbd99533e816c4fU, 0xbd4005cfbd8f4b8fU, 0xbcf1a4a8bca1b69fU,
  0x3e5ef584bea79c63U, 0xbd751d933d0149e6U, 0x3df6b3c0bc119a37U, 0xbbb80d1dbca07100U,
  0xbb287bc13d923d48U, 0xbe2728ca3d1e5316U, 0x3e4be4003d706564U, 0xbddfb7cebb4a2c5cU,
  0x3bef8eab3e922d19U, 0xbc11a92fbcb23b8fU, 0x3d2ffa233d37bc95U, 0xbe8f4c413d2500adU,
  0x3dad2a91bc878447U, 0x3cf826f63e20277fU, 0xbdcff1bebc501a00U, 0xbcafeb4fbe878920U,
  0x3d2d34c43d0949d6U, 0x3d28d4983e176916U, 0xbd5a345cbbc89c11U, 0x3a83e1eebe566e98U,
  0x3e037bd0bc4c1589U, 0x3d90871fbbac97b6U, 0xbea3a913be45a153U, 0xbe0a100e3d7bd0b5U,
  0xbd43d3ffbdd3717cU, 0x3d5d1316bdfe29edU, 0xbcb07df7bd54d46dU, 0x3c49b5443a6aa0f2U,
  0x3e3bfdd33cd8b5c5U, 0xbe130e31bdb12320U, 0x3d868a2fbde2b71eU, 0x3e676676be8ceecbU,
  0x3c5c0ff0bc21e25eU, 0x3e977c6ebd323198U, 0xbd6828c3bdb568fcU, 0xbd423273be15b3e9U,
  0x3e03bd1cbe091643U, 0xbe231f6cbd84fd42U, 0xbe0b8ba23dce4adeU, 0xbd75a0e23d0f1828U,
  0x3d50ac7b3dede012U, 0xbbff9ecebe074ae4U, 0xbc51ec5fbd98f9dcU, 0xbd875b2c3cfbc9c1U,
  0x3e36123abe332120U, 0x3dae5943bd46a59aU, 0x3c96a2e3be40ea8dU, 0x3e909072bea5d61cU,
  0xbd6589993d8a1462U, 0x3e72d27fbda1e73eU, 0xbe16b0e9bd82a18fU, 0xbc9376053d905533U,
  0x3da2100e3d55942dU, 0xbddbb36ebd870ecbU, 0xbe5a64f33d8d509fU, 0x3c6775283c9a0e22U,
  0x3cff44d23e50061eU, 0xbc2785433d2fbaeaU, 0x3d8aaf023d7f9244U, 0xbdbb2e203cd73e6eU,
  0x3e23bb8dbdf56791U, 0xbe42ce5b3c055ea9U, 0xbc87b67e3c8014d7U, 0xbd7bb31ebd93a640U,
  0xbdc2d230bccae4aeU, 0x3cb7ebbf3d560b81U, 0xbdb266c3bc0adf96U, 0xbc8c8e69bdae95faU,
  0xbd21a262bde4e83aU, 0x3d74fbeb3de1d841U, 0xbcc7e8693da86009U, 0x3d2a7c1fbc58282cU,
  0xbdaddbd5be100083U, 0xbcab2e51bc976113U, 0x3b0bdde43d8fb2bcU, 0x3df961c1bd7dc54bU,
  0xbd5ad9d63dd708e8U, 0x3ea156c33e3b49d2U, 0x3d09005fbd89198cU, 0x3e34d577be090711U,
  0x3c96c64abca77194U, 0x3e980e65bd2d7f3cU, 0x3de2465f3d3ff984U, 0x3d84908cbda3be13U,
  0x3da64a43be095cecU, 0xbccc6918bd44743bU, 0xbc39fb983e72c1bdU, 0xbd0050303c975b9eU,
  0xbdb77b053dd84a9bU, 0xbc7e759b3caf1fc0U, 0x3d509391bb47c62bU, 0x3e23cfb9bd553ff4U,
  0xbe431c463d81360bU, 0x3e8a9a573df5b2a0U, 0x3d96320dbe3dd731U, 0xbcdb1f77be3d90e3U,
  0xbe7084fdbe404326U, 0x3daff2383db94894U, 0xbc83f2e4bc7487aeU, 0xbc0f0b23bd290b02U,
  0xbda72f883dc31c23U, 0xbe3134cd3da60486U, 0x3dd335413e316a57U, 0xbd141ea23d657e2eU,
  0xbdd67f1d3d6ff244U, 0xbd2634303d6d06efU, 0x3d97b4893c4a7819U, 0x3dcc1a0bbd2031c3U,
  0xbe0eb55bbb8fabacU, 0xbd89a4433dfa97ccU, 0x3c9aef64be181405U, 0xbdea9085bd6d48f3U,
  0x3c145c913ba085ceU, 0x3e86b6363e4000beU, 0xbc3ad1093d6e04edU, 0x3b9369ee3c9a11a8U,
  0x3e0fe298beadcdf5U, 0x3e8a608bbc15028dU, 0xbd5d098c3ce2c003U, 0xbcea981a3ce502e1U,
  0xbc83dfe7bea11cd5U, 0xbd1c49d5bd6e3310U, 0xbddb2fd9bd9d190bU, 0x3e708cc63d74ba43U,
  0xbcffcc793e27cff4U, 0x3dc0a290bdb2719fU, 0xbc1a7bbebdd8b50bU, 0x3bbdd661bbd1825dU,
  0xbe6c9c0cbdf56fc8U, 0x3da875773d91e2aaU, 0x3e8137ed3cc11266U, 0x3d80788e3db878ebU,
  0x3d3e281dbd4a6b35U, 0x3e3f7a25bd27cedfU, 0x3dddfdd73e2b5859U, 0xbd9a527cbd45327fU,
  0x3d63a97b3ea4cc5cU, 0xbdc5cb35be377173U, 0x3bd6a4a43cffcbabU, 0xbdde58f7bd3f0b60U,
  0x3c771fd03e38cc44U, 0x3d4cfb573da56009U, 0x3d1f02a1bc53aed2U, 0x3e41ef45be7775c7U,
  0xbe8ad6c0bd14e721U, 0xbd7e5984bc3f2426U, 0xbe8b0bc3bd06a984U, 0xbd55c00c3db02f2eU,
  0xbe13995b3d9eb9abU, 0xbc4e4fd0bda7af6eU, 0xbd9bfc1a3d842b64U, 0xbca42d53bd9126c8U,
  0xbd9fced3bcd62f03U, 0xbd2a217a3d680b29U, 0x3d52dfb0bd10bbbaU, 0xbd2052cd3d39f58aU,
  0x3d755bcc3e4fd7abU, 0x3cbbdeba3bfb1d89U, 0xbce6e17b3d9caf6dU, 0xbdb93e55be042737U,
  0xbe0e3425bddd4a28U, 0x3e82767abbcc4fb5U, 0xbe24d729bce17f38U, 0x3da95af2be36e07bU,
  0xbaaf32a93dc215f1U, 0x3cfb0bda3cf6da11U, 0xbe0f1c11bde5be5bU, 0x3d104874bd0fb662U,
  0x3c519f14bdb46359U, 0x3ca5e1b8bd4cff06U, 0xbd0a541cbcfafe90U, 0xbea7ce3d3d775273U,
  0x3e050369be228818U, 0xbe6193bf3e3bf1b0U, 0xbd0d86d4be45f64fU, 0x3e5ad0f5bee83a44U,
  0xbcd7c8f7bdeaffe9U, 0x3e9720ffbe5f7ddcU, 0xbe2438023da9eeb2U, 0xb987c6ce3d0522daU,
  0x3e2222ae3d3d8f28U, 0xbdd053b0bdbab67cU, 0xbe094d3f3b7db84aU, 0x3c8c9d72bd95e88eU,
  0xbe6705c83d2f1ad6U, 0xbc9fffc5be1986b1U, 0xbd96bd46bd9a2057U, 0xbe11c778bd972518U,
  0x3e3dfa933d5920c9U, 0xbe9a693f3e549b30U, 0x3d854ba7be2106a2U, 0xbd22589dbeaea989U,
  0xbce8219d3cd1f06dU, 0x3d2b7f9a3de4f5bbU, 0xbe0595bb3d0a04faU, 0xbda508033e44c126U,
  0x3db8fbc33c425cfdU, 0x3e523b7b3d3bdf46U, 0xbd9deac9bd9e5a77U, 0xbd7c970ebb852502U,
  0x3d0434843e85cdf9U, 0x3dccf9683c230d24U, 0x3ccbf87e3db497faU, 0xbe3742653d86b1e0U,
  0x3e5be4863d9636feU, 0xbcf7eb683d6f6fffU, 0xbd6498cabe15c9e0U, 0xbe5d8e01bd2c36ceU,
  0xbe9477b6bd47bee6U, 0x3d34e321be48ec0cU, 0xbd88b242bc7c257aU, 0xbcc4aa2bbd5f2e46U,
  0xbe97aa93bd386aafU, 0xbe81d4edbd98a973U, 0x3c927bf23de44af1U, 0x3cadf4babd0bac88U,
  0xbdcbd0dabd99817dU, 0xbe1b2c053e81c136U, 0x3aaa718e3d479d80U, 0xbc236bcbbce6d181U,
  0xbe6cc6fbbd455df2U, 0xbc345cdfbe1b50b7U, 0xbd93dd50bbbeb916U, 0xbe0072fe3b84cfb4U,
  0xbdf94ac3be460633U, 0xbd3ea6b3bc48fb0cU, 0xbb85601dbd4995ccU, 0x3dc2ea933c9bc687U,
  0xbe34f106be511bb5U, 0xbe01c142bd09eef8U, 0xbd231a903cf1d907U, 0xbdc750263d3464e0U,
  0xbe04e747bd913454U, 0xbe2f7f11bba493b9U, 0xbd0b3a23bcaba4a3U, 0xbd02784dbc4777d7U,
  0xbeb68cafbddbb640U, 0x3c5bca31bc862403U, 0xbda223d5be0fd8ceU, 0xbe2221343ced1996U,
  0x3e8f28fd3d903e88U, 0x3e733f95bd4c2f91U, 0x3d0cff47bd2d9cd7U, 0x3d0d1436bbab53dbU,
  0xbe4e0eef3d87ba1eU, 0xbce4a799bd6a162dU, 0xbbf61ffa3dbdc86aU, 0x3c344d843c593e59U,
  0x3d9c327bbd6fc2faU, 0xbbcaad4a3c67c93eU, 0x3b20487a3d201221U, 0xbd85745c3b8f53ccU,
  0xbe8a9275bd52cfd6U, 0x3dbf62d63e94c3d8U, 0x3d6df6573c4cb763U, 0xbe411eddbd0e61f3U,
  0xbd9691a6be2c555cU, 0x3e1f0996bd427738U, 0xbe8de99d3d5a3e28U, 0x3d99419b3df36d63U,
  0xbd093ab33a3caa8cU, 0x3df0a4d83d8f4658U, 0xbdc19bf4bd68e794U, 0x3d190bbfbd633793U,
  0xbd3a5126be0b56f2U, 0xbe5219383c9ac29cU, 0xbe01f0013dc6ed97U, 0x3dd9a333bb8c82d3U,
  0xbe567a293d84d1f1U, 0x3e1fea5d3baa7734U, 0x3d287b433c48c938U, 0x3e273f8fbb75cc9aU,
  0xbdc1586fbe894768U, 0x3dd5f10dbcd77dd6U, 0xbde4cb943cbffe7fU, 0x3dc434f33d3a6af5U,
  0xbe3b9147be4e6cfdU, 0x3e124cbd3d6a0b9fU, 0xbdc4d5cd3d939cdaU, 0x3d6fc7d53caeced4U,
  0x3e1cee02bc1eae7eU, 0x3d94e850be55d299U, 0xbd8c05173d1808b9U, 0x3df19b313ce9f723U,
  0xbe9a7cf2be21d863U, 0x3e0063e23c76fb39U, 0xbcc604b5bc0ad7d9U, 0x3cb58e813ca7264cU,
  0xbcf078f7bdfdfd03U, 0x3e81c0083e3ae1e0U, 0x3aadb9eebdab504aU, 0x3d004e0dbd1c98feU,
  0xbe3599b5bdbe547aU, 0x3e17f30c3d3c52e9U, 0x3c32e9ce3d6a03e3U, 0xbde59d4d3cbbe77eU,
  0x3e822a063e8d8ebfU, 0x3dec37e0bd9e7d8aU, 0xbd60f86bbd3ea30fU, 0xbd12f2c83bef6203U,
  0xbe34ee3cbdea9c2bU, 0x3d89f6a53d518344U, 0x3c5360c5bcd29ceeU, 0x3c25423b3cda74d7U,
  0x3db42020bdfc0582U, 0x3e43f959bdda3ffeU, 0xbe22efba3a9292b5U, 0x3d0c3496be359ff1U,
  0x3c4c3463bdf92b95U, 0xbe584141bc274045U, 0x3a8c1897bbbf31e2U, 0x3d72a964bb4f2e84U,
  0x3dd7310fbdea495eU, 0x3b420aacbe1295d3U, 0x3c7feefd3da43986U, 0xbcc07592bd9f97efU,
  0xbdda9ed63d32fd16U, 0xbb2976f43d82f749U, 0xbd7fb7043d6fb893U, 0x3cdde9d0bd69fa0aU,
  0xbcddfa72be6904f0U, 0x3ea52809bcfe81b5U, 0xbe74010b3d75335fU, 0xbd6a5f1abe3dbd66U,
  0xbd2b35dbbddde8f9U, 0xbe502dc3bd6cb403U, 0x3dc0f29c3d25c602U, 0x3db8aecdbd50b510U,
  0x3d04af1e3ddb4d8cU, 0xbcc02f19be686acbU, 0xbd5035c4bd2694caU, 0xbe769ed8bd9bfce9U,
  0xbe85837a3ba82494U, 0xbde583093e0e02d2U, 0xbcc55b773cd6f0faU, 0x3dce40df3cb9a560U,
  0xbd8660a8be557cbfU, 0x3e1ea4d43ca6c914U, 0xbdbe356e3dc3c246U, 0x3db2a79abe46936aU,
  0x3d84464bbe531aafU, 0xbd372f0a3c893d3fU, 0x3db2fa963e043111U, 0xbcd49c703cdeb026U,
  0xbd7e45ac3e748875U, 0x3e032fa83e089cc0U, 0xbcea825b3d5125b5U, 0xbdcdb4e53d00f169U,
  0xbe764af6bd2fc3a8U, 0xbe883c31bc15fa4fU, 0x3c0bb5693d8e9869U, 0xbe3a008cbc0de221U,
  0xbc230ab1bcbf4d6fU, 0xbdd757523c932db0U, 0x3d25a3413cd270c6U, 0x3d753ee63c74828aU,
  0xbd88054a3cd38783U, 0x3d807fcc3d918579U, 0xbd0e8fc8be015e17U, 0x3c0cbe273d953d6eU,
  0xbd5b1281bdbca0b6U, 0x39e872e3bdd71c89U, 0xbd51dbfa3d808374U, 0xbcb2ab1dbd4f7693U,
  0xbd86307e3d367906U, 0xbce86d203d93ad09U, 0x3d2a62653da700f3U, 0x3d09d0a9bbd23f51U,
  0x3d28f88cbe3cf065U, 0xbcb82c3c3bee19e8U, 0xbd9c2ef9bd7a16a0U, 0x3cb88ce5bdb04acdU,
  0xbda917eb3d928d72U, 0x3db17ce4bd805b7eU, 0xbdf41017bdccbce6U, 0xbc76100a3cb4407cU,
  0xbdfa88adbdeaa4abU, 0xbdc707cabd8b48b3U, 0xbd829d0f3d086ac0U, 0x3d24f31e3d3f81deU,
  0xbd69f98b3da76f37U, 0xbe21f48dbd333831U, 0x3d70142d3b27eb49U, 0x3d398a5fbd028bd5U,
  0xbbc7000fbe1aec88U, 0x3a55d619bd8a76a9U, 0xbdc83aef3cc79867U, 0x3ce9e9c8bdb23074U,
